<pad>	0
<unk>	0
<s>	0
</s>	0
▁t	-0
▁a	-1
in	-2
▁th	-3
er	-4
▁s	-5
▁the	-6
on	-7
re	-8
▁c	-9
▁o	-10
▁b	-11
▁m	-12
▁w	-13
▁f	-14
an	-15
en	-16
es	-17
▁p	-18
it	-19
▁in	-20
or	-21
at	-22
▁N	-23
ed	-24
ar	-25
▁of	-26
al	-27
▁h	-28
▁to	-29
is	-30
ing	-31
▁an	-32
▁d	-33
ion	-34
ro	-35
il	-36
ic	-37
▁n	-38
as	-39
▁l	-40
ou	-41
▁and	-42
▁e	-43
om	-44
▁re	-45
ent	-46
id	-47
st	-48
et	-49
ill	-50
ec	-51
el	-52
▁g	-53
ut	-54
▁'	-55
ay	-56
▁it	-57
▁st	-58
▁for	-59
▁u	-60
▁com	-61
ad	-62
▁that	-63
▁on	-64
ers	-65
ve	-66
ly	-67
▁wh	-68
ur	-69
▁is	-70
th	-71
ac	-72
ol	-73
▁y	-74
est	-75
▁be	-76
ir	-77
▁$	-78
▁pro	-79
le	-80
ig	-81
▁sa	-82
ow	-83
ver	-84
ation	-85
▁con	-86
se	-87
▁as	-88
illion	-89
ter	-90
im	-91
▁sh	-92
ment	-93
ch	-94
▁said	-95
▁comp	-96
▁r	-97
▁at	-98
▁ex	-99
ear	-100
▁j	-101
res	-102
ce	-103
ith	-104
ge	-105
ts	-106
▁ne	-107
▁with	-108
▁al	-109
ld	-110
qu	-111
ate	-112
▁ch	-113
▁by	-114
▁mo	-115
▁tr	-116
rom	-117
am	-118
▁he	-119
▁de	-120
▁from	-121
oc	-122
▁million	-123
ot	-124
▁was	-125
os	-126
▁su	-127
ak	-128
▁mr	-129
ain	-130
ies	-131
▁are	-132
un	-133
ere	-134
▁v	-135
ct	-136
ul	-137
▁un	-138
▁its	-139
▁inc	-140
if	-141
▁mar	-142
▁bu	-143
ould	-144
ial	-145
▁year	-146
any	-147
pp	-148
▁ha	-149
are	-150
▁or	-151
ect	-152
▁but	-153
iv	-154
ust	-155
ort	-156
ess	-157
▁has	-158
▁will	-159
▁new	-160
▁off	-161
igh	-162
▁mark	-163
ap	-164
ds	-165
▁have	-166
▁ab	-167
ive	-168
▁pr	-169
em	-170
oun	-171
ays	-172
▁market	-173
ome	-174
ast	-175
ell	-176
▁we	-177
▁se	-178
ock	-179
um	-180
out	-181
▁pl	-182
ich	-183
ity	-184
▁ad	-185
▁co	-186
ding	-187
all	-188
▁ag	-189
▁le	-190
▁sp	-191
art	-192
▁company	-193
ag	-194
▁exp	-195
▁ind	-196
▁stock	-197
ther	-198
ice	-199
▁they	-200
age	-201
tr	-202
▁trad	-203
▁inv	-204
▁mon	-205
▁this	-206
op	-207
ab	-208
gh	-209
and	-210
ant	-211
▁k	-212
du	-213
▁which	-214
end	-215
ue	-216
ork	-217
▁go	-218
our	-219
▁would	-220
▁about	-221
▁ac	-222
ors	-223
rou	-224
ie	-225
▁more	-226
act	-227
▁not	-228
ake	-229
▁cor	-230
▁says	-231
▁invest	-232
ank	-233
▁ear	-234
▁am	-235
ong	-236
▁bo	-237
ans	-238
▁were	-239
ard	-240
▁qu	-241
▁comm	-242
▁rep	-243
▁cl	-244
▁fir	-245
▁ro	-246
▁up	-247
▁res	-248
anc	-249
day	-250
ire	-251
ber	-252
▁his	-253
pt	-254
der	-255
ip	-256
▁corp	-257
au	-258
ine	-259
▁had	-260
▁one	-261
▁billion	-262
man	-263
▁do	-264
▁who	-265
ore	-266
▁their	-267
▁so	-268
▁share	-269
ions	-270
ack	-271
▁inter	-272
▁some	-273
▁pres	-274
▁dis	-275
▁af	-276
ations	-277
▁sal	-278
ib	-279
od	-280
ud	-281
▁bank	-282
▁than	-283
▁fin	-284
▁rec	-285
ure	-286
▁bus	-287
▁all	-288
▁out	-289
ight	-290
us	-291
▁been	-292
ated	-293
ven	-294
▁fr	-295
so	-296
▁man	-297
eral	-298
▁sec	-299
▁dec	-300
ign	-301
▁int	-302
ach	-303
▁also	-304
per	-305
▁bec	-306
▁other	-307
ok	-308
ings	-309
ident	-310
▁cont	-311
▁produ	-312
yst	-313
▁app	-314
ree	-315
ance	-316
▁pre	-317
▁no	-318
ist	-319
ely	-320
ents	-321
ase	-322
▁part	-323
▁lo	-324
ices	-325
▁en	-326
ia	-327
ition	-328
ren	-329
ek	-330
▁br	-331
▁i	-332
old	-333
ual	-334
▁im	-335
ff	-336
ond	-337
ru	-338
wo	-339
ical	-340
ities	-341
own	-342
▁cons	-343
▁me	-344
ary	-345
ous	-346
oll	-347
ates	-348
▁ass	-349
▁month	-350
ik	-351
▁can	-352
▁when	-353
arter	-354
ustr	-355
ange	-356
aw	-357
ares	-358
▁after	-359
ime	-360
iness	-361
▁buy	-362
▁po	-363
▁last	-364
▁per	-365
▁high	-366
▁over	-367
▁business	-368
▁two	-369
▁if	-370
ause	-371
▁president	-372
ail	-373
bl	-374
ile	-375
▁ar	-376
ose	-377
▁shares	-378
▁years	-379
▁us	-380
ough	-381
▁first	-382
▁trading	-383
▁offic	-384
▁acc	-385
ide	-386
ish	-387
ey	-388
▁sales	-389
▁ser	-390
iz	-391
row	-392
ational	-393
▁because	-394
ex	-395
▁could	-396
vel	-397
gr	-398
▁there	-399
▁any	-400
▁fed	-401
▁industr	-402
ms	-403
able	-404
oss	-405
▁may	-406
▁week	-407
con	-408
▁&	-409
roup	-410
▁fe	-411
▁group	-412
li	-413
lo	-414
ecut	-415
▁most	-416
▁imp	-417
▁oper	-418
▁fun	-419
▁work	-420
ite	-421
▁under	-422
fit	-423
▁iss	-424
ments	-425
ected	-426
▁only	-427
ures	-428
reas	-429
▁offer	-430
▁act	-431
air	-432
wn	-433
▁york	-434
very	-435
▁ma	-436
▁such	-437
▁gen	-438
rop	-439
vern	-440
itt	-441
▁sell	-442
eric	-443
ress	-444
▁govern	-445
arg	-446
▁financ	-447
ult	-448
ester	-449
▁into	-450
▁incl	-451
conom	-452
▁econom	-453
▁wor	-454
int	-455
▁str	-456
▁jo	-457
▁report	-458
▁pe	-459
▁big	-460
▁down	-461
urn	-462
▁plan	-463
▁many	-464
▁own	-465
▁pol	-466
▁americ	-467
▁interest	-468
ced	-469
ep	-470
osed	-471
▁cr	-472
apan	-473
ence	-474
▁japan	-475
▁quarter	-476
▁anal	-477
▁unit	-478
▁exch	-479
▁add	-480
▁net	-481
ace	-482
▁execut	-483
▁ret	-484
▁say	-485
one	-486
▁law	-487
▁car	-488
av	-489
▁federal	-490
▁now	-491
▁mak	-492
▁time	-493
▁secur	-494
ens	-495
▁compan	-496
for	-497
▁lik	-498
▁inst	-499
ubl	-500
ues	-501
eld	-502
ount	-503
ang	-504
▁est	-505
▁companies	-506
rough	-507
▁el	-508
▁prices	-509
ower	-510
▁contr	-511
▁government	-512
red	-513
hn	-514
▁analyst	-515
▁min	-516
▁cap	-517
▁how	-518
ating	-519
ital	-520
▁sub	-521
uring	-522
▁sen	-523
gram	-524
▁dep	-525
▁program	-526
▁cents	-527
ax	-528
▁bet	-529
▁state	-530
▁ann	-531
▁you	-532
▁official	-533
ction	-534
ise	-535
▁bro	-536
▁earn	-537
▁even	-538
ict	-539
▁investors	-540
ines	-541
▁just	-542
iss	-543
▁cur	-544
▁exchange	-545
▁price	-546
ass	-547
ople	-548
jor	-549
▁major	-550
vi	-551
lier	-552
ade	-553
▁em	-554
▁profit	-555
▁what	-556
her	-557
ble	-558
cer	-559
▁def	-560
▁people	-561
▁decl	-562
uch	-563
▁end	-564
▁take	-565
▁ins	-566
▁recent	-567
ief	-568
▁air	-569
▁pay	-570
▁cost	-571
enc	-572
▁serv	-573
▁dire	-574
▁reg	-575
we	-576
▁bon	-577
▁yester	-578
▁yesterday	-579
▁much	-580
▁contin	-581
ets	-582
ett	-583
▁curren	-584
▁bl	-585
▁three	-586
▁while	-587
▁months	-588
▁securities	-589
ird	-590
▁disc	-591
xt	-592
tain	-593
▁them	-594
▁rose	-595
▁again	-596
ink	-597
▁sc	-598
▁eff	-599
ouse	-600
▁cour	-601
ased	-602
ision	-603
▁sl	-604
▁publ	-605
ash	-606
▁back	-607
fer	-608
▁bonds	-609
▁financial	-610
▁mer	-611
▁des	-612
▁stocks	-613
▁produc	-614
▁real	-615
▁direct	-616
▁call	-617
▁third	-618
▁prov	-619
▁deb	-620
▁spec	-621
orn	-622
▁grow	-623
▁loss	-624
▁through	-625
▁supp	-626
ian	-627
▁sm	-628
▁next	-629
ame	-630
▁comput	-631
orts	-632
▁chair	-633
▁tax	-634
▁long	-635
▁rem	-636
▁earnings	-637
ince	-638
reat	-639
▁investment	-640
ved	-641
▁did	-642
▁make	-643
▁trans	-644
fl	-645
▁still	-646
fore	-647
ific	-648
▁coun	-649
▁chairman	-650
▁att	-651
▁capital	-652
ects	-653
ystem	-654
▁american	-655
▁acqu	-656
▁money	-657
▁she	-658
ility	-659
▁fore	-660
▁earlier	-661
▁board	-662
▁general	-663
▁industry	-664
ied	-665
▁lead	-666
▁chief	-667
▁system	-668
amp	-669
▁gain	-670
▁before	-671
▁dr	-672
ix	-673
ives	-674
▁rest	-675
▁house	-676
▁those	-677
▁nor	-678
▁since	-679
iday	-680
▁executive	-681
▁val	-682
▁increas	-683
▁national	-684
▁ph	-685
▁these	-686
ick	-687
ury	-688
ared	-689
▁fut	-690
▁cal	-691
▁war	-692
▁bel	-693
▁ste	-694
▁gu	-695
▁bill	-696
▁bid	-697
gress	-698
▁deal	-699
▁form	-700
▁dem	-701
ory	-702
ost	-703
velop	-704
ield	-705
▁prop	-706
▁hol	-707
▁friday	-708
gan	-709
▁div	-710
▁current	-711
gy	-712
over	-713
▁officials	-714
▁equ	-715
ft	-716
▁concer	-717
▁expected	-718
elp	-719
▁pur	-720
▁like	-721
und	-722
▁sur	-723
▁well	-724
verage	-725
▁concern	-726
ember	-727
ollar	-728
▁develop	-729
▁made	-730
▁analysts	-731
▁oct	-732
loy	-733
▁rate	-734
▁news	-735
cess	-736
▁adv	-737
▁intern	-738
ional	-739
▁show	-740
▁fl	-741
▁par	-742
ound	-743
ee	-744
ible	-745
▁aut	-746
itut	-747
▁manag	-748
isc	-749
io	-750
son	-751
▁kn	-752
▁proble	-753
▁far	-754
▁markets	-755
oci	-756
ater	-757
▁rel	-758
▁buil	-759
min	-760
▁sign	-761
▁days	-762
gin	-763
ons	-764
ord	-765
▁firm	-766
▁does	-767
ves	-768
▁help	-769
▁four	-770
▁reven	-771
▁del	-772
▁index	-773
▁col	-774
▁jun	-775
▁cred	-776
its	-777
ween	-778
▁between	-779
▁against	-780
ics	-781
▁ed	-782
▁emp	-783
▁rates	-784
▁dollar	-785
▁both	-786
ally	-787
rol	-788
▁world	-789
▁includ	-790
▁public	-791
ese	-792
▁sept	-793
▁calif	-794
▁income	-795
ty	-796
ton	-797
iew	-798
▁fell	-799
read	-800
▁her	-801
▁estim	-802
ry	-803
uding	-804
ider	-805
▁get	-806
ued	-807
▁op	-808
▁appro	-809
▁small	-810
▁brit	-811
▁vol	-812
▁cent	-813
ug	-814
ative	-815
▁revenue	-816
▁japanese	-817
ks	-818
ency	-819
▁ago	-820
▁spok	-821
▁should	-822
pped	-823
▁court	-824
▁average	-825
ily	-826
▁ent	-827
▁products	-828
ants	-829
istr	-830
▁sch	-831
▁during	-832
▁congress	-833
arge	-834
form	-835
▁international	-836
uc	-837
ner	-838
▁tel	-839
ists	-840
▁funds	-841
ior	-842
▁lower	-843
▁sever	-844
ising	-845
▁depart	-846
▁agree	-847
▁fil	-848
▁spokes	-849
▁issue	-850
▁computer	-851
▁ano	-852
▁requ	-853
▁another	-854
ever	-855
vert	-856
▁elect	-857
▁insur	-858
ric	-859
▁eu	-860
▁debt	-861
▁leg	-862
▁then	-863
▁employ	-864
▁trade	-865
▁reported	-866
▁among	-867
▁higher	-868
▁larg	-869
▁including	-870
ined	-871
▁gr	-872
▁associ	-873
▁tot	-874
ording	-875
▁remain	-876
▁num	-877
▁need	-878
▁stre	-879
▁few	-880
▁credit	-881
▁though	-882
▁foreign	-883
▁less	-884
me	-885
▁being	-886
▁ra	-887
▁however	-888
▁him	-889
▁fund	-890
▁countr	-891
▁institut	-892
▁sim	-893
▁each	-894
ular	-895
▁common	-896
reed	-897
▁turn	-898
▁dif	-899
ually	-900
▁cut	-901
▁announ	-902
▁according	-903
echn	-904
▁ter	-905
▁control	-906
▁redu	-907
hing	-908
ning	-909
▁put	-910
rease	-911
▁sold	-912
ertain	-913
▁five	-914
▁compl	-915
▁think	-916
▁our	-917
▁addition	-918
▁way	-919
▁purch	-920
▁main	-921
▁vice	-922
▁total	-923
▁sale	-924
vers	-925
▁past	-926
▁rese	-927
▁plans	-928
ending	-929
ged	-930
led	-931
ether	-932
▁good	-933
agement	-934
▁sou	-935
ired	-936
▁ev	-937
▁day	-938
▁every	-939
▁several	-940
rope	-941
▁rece	-942
▁europe	-943
vious	-944
▁want	-945
▁traders	-946
▁operations	-947
▁increase	-948
ibut	-949
▁department	-950
▁ke	-951
alth	-952
▁look	-953
▁resp	-954
▁consider	-955
▁where	-956
arch	-957
▁treas	-958
▁corpor	-959
▁research	-960
als	-961
ject	-962
hip	-963
▁closed	-964
▁contract	-965
ind	-966
▁very	-967
▁banks	-968
▁growth	-969
▁economic	-970
▁meet	-971
ollow	-972
▁follow	-973
▁issues	-974
▁head	-975
▁cle	-976
▁pers	-977
▁techn	-978
▁futures	-979
olders	-980
▁tak	-981
▁early	-982
▁brok	-983
▁strong	-984
ruct	-985
round	-986
▁near	-987
▁stud	-988
▁treasury	-989
▁bond	-990
▁hal	-991
▁bush	-992
▁open	-993
▁polit	-994
▁management	-995
▁second	-996
olo	-997
▁pa	-998
▁cash	-999
▁yield	-1000
ceed	-1001
▁post	-1002
▁return	-1003
▁oil	-1004
▁use	-1005
▁ben	-1006
ators	-1007
▁compet	-1008
les	-1009
▁mat	-1010
▁opp	-1011
▁might	-1012
▁insurance	-1013
▁mem	-1014
▁level	-1015
ume	-1016
ious	-1017
ving	-1018
▁commun	-1019
▁run	-1020
▁move	-1021
uf	-1022
aper	-1023
▁john	-1024
▁used	-1025
▁admin	-1026
▁costs	-1027
▁administr	-1028
ger	-1029
▁special	-1030
ward	-1031
year	-1032
▁franc	-1033
ri	-1034
erc	-1035
imes	-1036
▁jud	-1037
▁power	-1038
▁office	-1039
ately	-1040
cept	-1041
gest	-1042
▁eng	-1043
ful	-1044
▁san	-1045
ised	-1046
▁pos	-1047
▁start	-1048
▁director	-1049
▁spokesman	-1050
▁six	-1051
▁home	-1052
bers	-1053
▁holding	-1054
▁service	-1055
▁due	-1056
▁close	-1057
▁previous	-1058
▁wall	-1059
quarter	-1060
▁officer	-1061
▁support	-1062
aren	-1063
▁tal	-1064
▁fact	-1065
▁late	-1066
▁health	-1067
▁too	-1068
▁based	-1069
▁chang	-1070
▁street	-1071
▁british	-1072
▁added	-1073
▁polic	-1074
▁today	-1075
▁assets	-1076
ults	-1077
ago	-1078
rug	-1079
▁sw	-1080
▁see	-1081
wh	-1082
til	-1083
onal	-1084
▁fall	-1085
▁agreement	-1086
az	-1087
thers	-1088
pr	-1089
▁rev	-1090
▁suc	-1091
▁yen	-1092
▁committ	-1093
ittle	-1094
ready	-1095
▁already	-1096
▁least	-1097
▁number	-1098
ission	-1099
▁until	-1100
▁former	-1101
▁det	-1102
▁case	-1103
▁belie	-1104
▁short	-1105
way	-1106
▁wo	-1107
▁wr	-1108
▁fur	-1109
▁west	-1110
▁partic	-1111
▁result	-1112
▁fo	-1113
ized	-1114
▁ger	-1115
▁value	-1116
▁med	-1117
▁stand	-1118
▁agency	-1119
▁ended	-1120
▁going	-1121
▁point	-1122
▁union	-1123
▁old	-1124
ufact	-1125
▁manufact	-1126
▁ca	-1127
▁opt	-1128
▁port	-1129
▁junk	-1130
▁mach	-1131
bert	-1132
▁dam	-1133
▁city	-1134
▁same	-1135
anding	-1136
ints	-1137
▁fac	-1138
ential	-1139
▁californ	-1140
ames	-1141
▁aug	-1142
▁fam	-1143
▁pet	-1144
▁try	-1145
▁great	-1146
▁consum	-1147
▁little	-1148
▁press	-1149
elf	-1150
ife	-1151
▁vot	-1152
▁sovi	-1153
▁operating	-1154
ees	-1155
▁canad	-1156
▁september	-1157
ull	-1158
▁1	-1159
aim	-1160
▁services	-1161
ev	-1162
▁neg	-1163
ump	-1164
ky	-1165
ret	-1166
▁california	-1167
▁airl	-1168
▁points	-1169
iod	-1170
land	-1171
thing	-1172
▁period	-1173
▁economy	-1174
▁set	-1175
▁const	-1176
▁regul	-1177
▁stake	-1178
ead	-1179
▁expect	-1180
▁eas	-1181
▁prom	-1182
▁certain	-1183
ages	-1184
ustom	-1185
▁poss	-1186
▁subs	-1187
▁called	-1188
▁rat	-1189
▁impro	-1190
▁results	-1191
ders	-1192
▁seem	-1193
▁aff	-1194
▁bar	-1195
▁agreed	-1196
▁custom	-1197
ason	-1198
ense	-1199
ones	-1200
ights	-1201
▁south	-1202
▁industrial	-1203
▁administration	-1204
▁buying	-1205
▁met	-1206
▁propos	-1207
▁selling	-1208
▁ris	-1209
▁know	-1210
ection	-1211
▁maker	-1212
▁annual	-1213
▁lim	-1214
▁here	-1215
▁without	-1216
ived	-1217
bs	-1218
cr	-1219
▁priv	-1220
▁sett	-1221
▁reser	-1222
▁mil	-1223
▁play	-1224
▁claim	-1225
ands	-1226
▁half	-1227
▁firms	-1228
ient	-1229
▁gold	-1230
▁around	-1231
▁offering	-1232
term	-1233
▁order	-1234
▁problems	-1235
ases	-1236
ited	-1237
▁mort	-1238
▁loans	-1239
▁acquis	-1240
▁cre	-1241
▁infl	-1242
▁corporate	-1243
yn	-1244
▁lt	-1245
▁prot	-1246
ces	-1247
▁conf	-1248
▁distr	-1249
ark	-1250
ications	-1251
▁production	-1252
ody	-1253
ners	-1254
▁pric	-1255
▁begin	-1256
▁repres	-1257
▁whether	-1258
▁compared	-1259
▁transact	-1260
▁av	-1261
▁li	-1262
▁tex	-1263
▁account	-1264
▁dow	-1265
▁monday	-1266
▁further	-1267
▁line	-1268
▁effect	-1269
▁ual	-1270
cl	-1271
▁hop	-1272
▁lat	-1273
▁alth	-1274
▁although	-1275
tern	-1276
arent	-1277
▁drop	-1278
ift	-1279
▁allow	-1280
▁lab	-1281
▁hand	-1282
▁right	-1283
▁import	-1284
▁likely	-1285
▁shareh	-1286
▁recently	-1287
ss	-1288
▁losses	-1289
▁drug	-1290
▁mortg	-1291
▁takeover	-1292
▁ask	-1293
▁large	-1294
▁country	-1295
aged	-1296
ondon	-1297
▁fail	-1298
▁london	-1299
▁members	-1300
▁increased	-1301
▁exper	-1302
sp	-1303
▁test	-1304
▁reach	-1305
▁retail	-1306
ology	-1307
itions	-1308
▁august	-1309
▁volume	-1310
▁building	-1311
▁political	-1312
ina	-1313
▁seek	-1314
▁record	-1315
▁expects	-1316
▁continue	-1317
med	-1318
▁bas	-1319
▁rul	-1320
▁notes	-1321
▁my	-1322
▁fig	-1323
▁loc	-1324
▁hard	-1325
▁policy	-1326
▁committee	-1327
ocr	-1328
ten	-1329
▁ge	-1330
▁advert	-1331
▁yet	-1332
▁differ	-1333
ub	-1334
icago	-1335
▁plant	-1336
▁chicago	-1337
▁mag	-1338
▁indic	-1339
▁strate	-1340
▁commission	-1341
▁activ	-1342
ends	-1343
ston	-1344
cy	-1345
par	-1346
▁bene	-1347
▁camp	-1348
▁keep	-1349
▁mean	-1350
▁life	-1351
▁quest	-1352
▁subsid	-1353
ned	-1354
ured	-1355
▁ltd	-1356
▁earth	-1357
▁times	-1358
▁product	-1359
▁come	-1360
▁complet	-1361
▁declined	-1362
▁democr	-1363
▁black	-1364
▁found	-1365
▁te	-1366
▁gre	-1367
▁sug	-1368
ially	-1369
▁charg	-1370
▁clear	-1371
▁divid	-1372
▁soviet	-1373
osite	-1374
▁art	-1375
▁view	-1376
ercial	-1377
▁decline	-1378
▁systems	-1379
▁commercial	-1380
▁los	-1381
▁invol	-1382
▁steel	-1383
▁demand	-1384
▁senior	-1385
▁dom	-1386
▁clos	-1387
▁white	-1388
inc	-1389
▁dro	-1390
imin	-1391
▁dat	-1392
▁must	-1393
▁nation	-1394
ll	-1395
ath	-1396
▁coll	-1397
▁held	-1398
▁weeks	-1399
iron	-1400
ize	-1401
ron	-1402
atch	-1403
isco	-1404
▁loan	-1405
▁trust	-1406
ides	-1407
▁sto	-1408
ivers	-1409
▁announced	-1410
▁mc	-1411
▁dou	-1412
▁gas	-1413
iscal	-1414
▁fiscal	-1415
▁association	-1416
ably	-1417
▁ext	-1418
▁change	-1419
▁hear	-1420
▁refl	-1421
▁jones	-1422
▁largest	-1423
ended	-1424
▁become	-1425
▁making	-1426
▁series	-1427
ivid	-1428
ural	-1429
▁som	-1430
▁inform	-1431
ale	-1432
▁mot	-1433
▁top	-1434
▁broad	-1435
0-	-1436
sh	-1437
▁low	-1438
▁give	-1439
▁workers	-1440
▁nov	-1441
▁ref	-1442
▁slow	-1443
ought	-1444
▁comment	-1445
▁meas	-1446
ization	-1447
▁senate	-1448
▁composite	-1449
amed	-1450
▁mor	-1451
▁judge	-1452
▁paper	-1453
▁problem	-1454
igation	-1455
▁latest	-1456
ild	-1457
work	-1458
▁examp	-1459
▁proper	-1460
iel	-1461
▁mod	-1462
▁nine	-1463
▁weak	-1464
ober	-1465
port	-1466
▁read	-1467
▁nearly	-1468
▁vi	-1469
emical	-1470
▁never	-1471
▁employees	-1472
att	-1473
eed	-1474
get	-1475
vent	-1476
▁shar	-1477
ividual	-1478
▁orders	-1479
▁earthqu	-1480
▁individual	-1481
ave	-1482
isl	-1483
ony	-1484
uss	-1485
▁char	-1486
▁took	-1487
▁legisl	-1488
gel	-1489
ins	-1490
omm	-1491
ains	-1492
oup	-1493
▁somet	-1494
▁example	-1495
▁francisco	-1496
iam	-1497
oti	-1498
ator	-1499
cent	-1500
▁estate	-1501
▁negoti	-1502
standing	-1503
▁businesses	-1504
▁bre	-1505
▁bud	-1506
▁hur	-1507
▁paid	-1508
▁executives	-1509
▁acquisition	-1510
enn	-1511
ross	-1512
▁your	-1513
hington	-1514
▁better	-1515
▁priced	-1516
▁estimated	-1517
▁washington	-1518
aff	-1519
hor	-1520
ike	-1521
ods	-1522
▁development	-1523
agu	-1524
ium	-1525
▁mass	-1526
ply	-1527
empt	-1528
▁expl	-1529
▁amount	-1530
▁others	-1531
▁network	-1532
▁represent	-1533
▁began	-1534
▁later	-1535
▁giv	-1536
iting	-1537
▁labor	-1538
▁magaz	-1539
▁texas	-1540
▁purchase	-1541
te	-1542
oint	-1543
▁cau	-1544
▁data	-1545
▁lawy	-1546
▁benefit	-1547
▁meeting	-1548
pite	-1549
ither	-1550
▁heav	-1551
▁despite	-1552
▁october	-1553
▁rise	-1554
▁robert	-1555
▁proposed	-1556
▁earthquake	-1557
yp	-1558
▁pot	-1559
▁design	-1560
▁democrat	-1561
▁partners	-1562
emp	-1563
▁attr	-1564
ession	-1565
▁technology	-1566
▁ms	-1567
▁pan	-1568
▁area	-1569
▁init	-1570
▁deli	-1571
▁hour	-1572
▁currently	-1573
rupt	-1574
ively	-1575
ounts	-1576
▁free	-1577
▁discl	-1578
▁offered	-1579
most	-1580
▁lot	-1581
▁almost	-1582
▁possible	-1583
▁spending	-1584
ool	-1585
the	-1586
ided	-1587
▁mid	-1588
▁once	-1589
▁vent	-1590
▁proposal	-1591
fol	-1592
uly	-1593
▁got	-1594
ilities	-1595
▁univers	-1596
▁pass	-1597
eph	-1598
▁ant	-1599
ically	-1600
▁dropped	-1601
▁process	-1602
▁chemical	-1603
▁investor	-1604
▁mortgage	-1605
▁east	-1606
▁future	-1607
▁let	-1608
▁rich	-1609
▁force	-1610
▁private	-1611
▁received	-1612
els	-1613
▁came	-1614
▁within	-1615
▁position	-1616
▁customers	-1617
▁ob	-1618
rodu	-1619
▁plun	-1620
etting	-1621
▁mich	-1622
▁suit	-1623
▁pat	-1624
▁terms	-1625
▁school	-1626
▁include	-1627
▁particular	-1628
▁19	-1629
ling	-1630
▁toky	-1631
ley	-1632
acific	-1633
ipment	-1634
▁restruct	-1635
▁information	-1636
put	-1637
▁ir	-1638
▁env	-1639
▁named	-1640
▁trying	-1641
▁programs	-1642
▁arg	-1643
▁geor	-1644
▁author	-1645
▁defense	-1646
▁tues	-1647
▁often	-1648
▁america	-1649
▁tuesday	-1650
▁decision	-1651
▁ford	-1652
▁trou	-1653
▁gains	-1654
▁broker	-1655
▁budget	-1656
▁changes	-1657
ili	-1658
▁unl	-1659
▁crit	-1660
▁success	-1661
ears	-1662
icip	-1663
▁care	-1664
▁filed	-1665
▁charge	-1666
▁equipment	-1667
acts	-1668
▁ill	-1669
▁nat	-1670
▁full	-1671
▁states	-1672
▁environ	-1673
ys	-1674
▁prob	-1675
▁quot	-1676
▁damage	-1677
▁portfol	-1678
▁suggest	-1679
ove	-1680
▁july	-1681
▁sing	-1682
▁tv	-1683
▁dav	-1684
▁thr	-1685
▁coup	-1686
▁enough	-1687
▁united	-1688
▁publish	-1689
ting	-1690
▁typ	-1691
▁pack	-1692
▁told	-1693
ulation	-1694
▁rights	-1695
▁subsidi	-1696
▁financing	-1697
ety	-1698
▁colum	-1699
▁james	-1700
▁local	-1701
▁appe	-1702
▁joint	-1703
▁potential	-1704
▁environment	-1705
▁wom	-1706
▁division	-1707
▁managers	-1708
▁following	-1709
irc	-1710
▁circ	-1711
▁secret	-1712
ips	-1713
▁place	-1714
▁european	-1715
▁additional	-1716
▁outstanding	-1717
fic	-1718
▁es	-1719
ients	-1720
ified	-1721
itive	-1722
▁tokyo	-1723
▁finance	-1724
pl	-1725
cast	-1726
ness	-1727
▁able	-1728
▁soft	-1729
▁soon	-1730
▁boost	-1731
▁equity	-1732
▁options	-1733
▁industries	-1734
▁whose	-1735
▁banking	-1736
▁provide	-1737
▁transaction	-1738
orney	-1739
▁defic	-1740
▁attorney	-1741
ael	-1742
itr	-1743
ilar	-1744
▁similar	-1745
▁inflation	-1746
▁la	-1747
▁win	-1748
▁leaders	-1749
▁computers	-1750
ened	-1751
▁best	-1752
▁germ	-1753
▁manager	-1754
▁consumer	-1755
erv	-1756
just	-1757
▁sol	-1758
▁hous	-1759
▁pred	-1760
▁separ	-1761
▁things	-1762
▁signific	-1763
ush	-1764
val	-1765
▁away	-1766
ibuted	-1767
▁accept	-1768
▁continued	-1769
▁advertising	-1770
ered	-1771
estic	-1772
isions	-1773
▁action	-1774
▁personal	-1775
▁shareholders	-1776
ways	-1777
▁dre	-1778
▁har	-1779
▁list	-1780
▁makes	-1781
ruction	-1782
▁marketing	-1783
orrow	-1784
▁caus	-1785
▁june	-1786
estern	-1787
▁china	-1788
▁project	-1789
▁important	-1790
▁warner	-1791
▁dollars	-1792
▁instead	-1793
▁contracts	-1794
▁hu	-1795
ison	-1796
mark	-1797
▁red	-1798
▁sav	-1799
▁conn	-1800
▁sour	-1801
▁angel	-1802
▁rather	-1803
▁settle	-1804
▁university	-1805
▁lost	-1806
▁prof	-1807
▁reason	-1808
▁improve	-1809
ience	-1810
ories	-1811
▁happ	-1812
▁dealers	-1813
▁increasing	-1814
itor	-1815
▁sent	-1816
▁below	-1817
▁march	-1818
▁left	-1819
▁asked	-1820
▁consult	-1821
▁require	-1822
▁significant	-1823
og	-1824
ution	-1825
▁bills	-1826
▁sched	-1827
▁believe	-1828
▁airlines	-1829
▁via	-1830
▁face	-1831
▁north	-1832
▁quick	-1833
▁units	-1834
▁posted	-1835
▁getting	-1836
ont	-1837
▁sit	-1838
▁fourth	-1839
by	-1840
▁auto	-1841
▁food	-1842
▁break	-1843
▁pract	-1844
▁charges	-1845
be	-1846
aps	-1847
bled	-1848
aguar	-1849
▁risk	-1850
▁youn	-1851
ensive	-1852
▁adjust	-1853
▁family	-1854
▁jaguar	-1855
ortion	-1856
▁above	-1857
▁claims	-1858
▁savings	-1859
▁question	-1860
▁flo	-1861
▁led	-1862
while	-1863
idence	-1864
▁taken	-1865
▁meanwhile	-1866
unch	-1867
▁bad	-1868
▁centr	-1869
▁raise	-1870
▁boston	-1871
▁margin	-1872
uing	-1873
▁pop	-1874
▁jump	-1875
ane	-1876
ted	-1877
▁avail	-1878
▁legal	-1879
ability	-1880
▁stores	-1881
▁domestic	-1882
▁included	-1883
ism	-1884
rel	-1885
anch	-1886
▁western	-1887
▁base	-1888
▁talks	-1889
▁canada	-1890
ibm	-1891
▁ut	-1892
lish	-1893
▁ibm	-1894
▁comb	-1895
▁slight	-1896
▁subsidiary	-1897
▁construction	-1898
ixed	-1899
ware	-1900
▁hit	-1901
▁along	-1902
▁calls	-1903
▁crash	-1904
▁itself	-1905
▁deficit	-1906
▁electron	-1907
▁standard	-1908
ister	-1909
▁makers	-1910
▁convert	-1911
▁introdu	-1912
▁security	-1913
rill	-1914
▁beh	-1915
▁team	-1916
▁subst	-1917
▁engine	-1918
▁working	-1919
▁portfolio	-1920
urs	-1921
▁talk	-1922
▁organ	-1923
▁discuss	-1924
▁figures	-1925
▁william	-1926
▁transport	-1927
▁pil	-1928
ublic	-1929
▁farm	-1930
▁pain	-1931
ficult	-1932
▁restr	-1933
▁bought	-1934
▁parent	-1935
▁percent	-1936
▁canadian	-1937
▁difficult	-1938
▁secretary	-1939
▁restructuring	-1940
▁sk	-1941
▁emer	-1942
▁pret	-1943
forman	-1944
▁telev	-1945
▁angeles	-1946
ival	-1947
▁cond	-1948
▁block	-1949
▁class	-1950
▁germany	-1951
▁reached	-1952
▁statement	-1953
▁previously	-1954
pec	-1955
side	-1956
▁ener	-1957
▁david	-1958
▁volat	-1959
▁teleph	-1960
▁probably	-1961
lex	-1962
▁mrs	-1963
▁won	-1964
based	-1965
▁find	-1966
▁center	-1967
▁prefer	-1968
▁reports	-1969
▁reserve	-1970
▁magazine	-1971
▁available	-1972
ude	-1973
time	-1974
ances	-1975
▁party	-1976
▁effort	-1977
▁resign	-1978
▁countries	-1979
▁manufactur	-1980
ges	-1981
osp	-1982
ards	-1983
ring	-1984
▁deter	-1985
▁venture	-1986
▁wa	-1987
▁hist	-1988
formance	-1989
▁biggest	-1990
▁holders	-1991
▁looking	-1992
▁proceed	-1993
▁performance	-1994
back	-1995
▁sum	-1996
arily	-1997
▁tend	-1998
▁given	-1999
▁overs	-2000
▁either	-2001
▁express	-2002
▁pacific	-2003
▁predict	-2004
▁increases	-2005
bia	-2006
▁canc	-2007
atives	-2008
▁frank	-2009
▁different	-2010
thern	-2011
▁alle	-2012
▁step	-2013
uation	-2014
▁seven	-2015
▁reduce	-2016
▁announce	-2017
▁dividend	-2018
▁television	-2019
icle	-2020
▁den	-2021
ields	-2022
itary	-2023
▁book	-2024
▁rele	-2025
ension	-2026
▁depos	-2027
▁noted	-2028
▁using	-2029
▁energy	-2030
▁profits	-2031
▁#	-2032
nal	-2033
▁aid	-2034
elves	-2035
▁jour	-2036
▁viol	-2037
▁child	-2038
▁known	-2039
▁journal	-2040
▁machines	-2041
ck	-2042
ify	-2043
▁lyn	-2044
▁nec	-2045
ained	-2046
▁cars	-2047
▁cases	-2048
▁buyers	-2049
▁saying	-2050
▁attempt	-2051
▁lawyers	-2052
▁approval	-2053
▁sat	-2054
epend	-2055
ordin	-2056
▁hong	-2057
▁coming	-2058
▁efforts	-2059
▁independ	-2060
▁investments	-2061
▁ide	-2062
▁why	-2063
▁bell	-2064
▁cover	-2065
▁staff	-2066
▁approved	-2067
▁payments	-2068
aign	-2069
ging	-2070
aster	-2071
▁poor	-2072
▁goods	-2073
▁groups	-2074
▁having	-2075
▁profess	-2076
▁campaign	-2077
▁republic	-2078
▁telephone	-2079
gth	-2080
▁targ	-2081
▁went	-2082
duct	-2083
▁fav	-2084
ering	-2085
▁laws	-2086
▁helped	-2087
▁merrill	-2088
tc	-2089
▁gm	-2090
used	-2091
▁hot	-2092
ortun	-2093
pping	-2094
▁feel	-2095
▁miss	-2096
▁proj	-2097
ibility	-2098
▁owners	-2099
▁airline	-2100
▁britain	-2101
▁electric	-2102
▁fu	-2103
▁ur	-2104
▁dev	-2105
▁espec	-2106
earlier	-2107
▁levels	-2108
▁raised	-2109
▁threat	-2110
▁schedul	-2111
▁estimates	-2112
▁institute	-2113
▁especially	-2114
▁wed	-2115
▁huge	-2116
▁clients	-2117
▁growing	-2118
▁remains	-2119
▁communications	-2120
bitr	-2121
▁jan	-2122
▁wid	-2123
arant	-2124
▁ever	-2125
▁name	-2126
▁prem	-2127
▁heavy	-2128
▁lynch	-2129
▁newsp	-2130
▁guarant	-2131
▁acquired	-2132
▁slightly	-2133
▁percentage	-2134
▁manufacturing	-2135
up	-2136
▁reb	-2137
▁vis	-2138
▁kong	-2139
▁autom	-2140
▁succeed	-2141
▁columbia	-2142
▁strategy	-2143
▁brokerage	-2144
cc	-2145
▁summ	-2146
▁thom	-2147
▁study	-2148
▁german	-2149
▁respons	-2150
▁something	-2151
▁legislation	-2152
▁particularly	-2153
app	-2154
ier	-2155
ler	-2156
▁tell	-2157
▁vict	-2158
▁mater	-2159
▁gained	-2160
▁eastern	-2161
▁material	-2162
▁ve	-2163
imum	-2164
▁job	-2165
▁var	-2166
▁clim	-2167
▁else	-2168
▁thing	-2169
▁really	-2170
▁leading	-2171
▁bankrupt	-2172
▁interests	-2173
ris	-2174
▁bear	-2175
▁fees	-2176
▁whol	-2177
▁event	-2178
▁marks	-2179
▁activity	-2180
▁transportation	-2181
▁au	-2182
itch	-2183
medi	-2184
▁foc	-2185
▁vet	-2186
ality	-2187
▁count	-2188
▁surpr	-2189
▁failed	-2190
▁measure	-2191
▁restrict	-2192
▁completed	-2193
▁institutions	-2194
head	-2195
▁rally	-2196
▁rules	-2197
▁struct	-2198
▁substant	-2199
ots	-2200
ills	-2201
▁bay	-2202
ences	-2203
ining	-2204
▁lines	-2205
ference	-2206
▁taking	-2207
▁reflect	-2208
▁pressure	-2209
da	-2210
▁z	-2211
▁gi	-2212
▁kid	-2213
▁fren	-2214
ustral	-2215
▁gener	-2216
▁wants	-2217
▁young	-2218
▁toward	-2219
▁acquire	-2220
▁austral	-2221
▁michael	-2222
▁holdings	-2223
▁military	-2224
▁directors	-2225
▁build	-2226
▁plunge	-2227
▁outside	-2228
▁seeking	-2229
▁producers	-2230
body	-2231
attle	-2232
▁educ	-2233
▁role	-2234
▁advis	-2235
▁bring	-2236
▁minor	-2237
▁commod	-2238
▁course	-2239
▁longer	-2240
▁single	-2241
▁limited	-2242
▁related	-2243
▁includes	-2244
▁bankruptcy	-2245
▁competition	-2246
ga	-2247
ino	-2248
nes	-2249
ugh	-2250
bach	-2251
▁ren	-2252
anged	-2253
▁suff	-2254
ablish	-2255
▁hours	-2256
▁seems	-2257
▁medical	-2258
▁started	-2259
▁establish	-2260
▁arr	-2261
▁owns	-2262
▁arbitr	-2263
▁abortion	-2264
▁disclosed	-2265
▁relations	-2266
aft	-2267
bed	-2268
uck	-2269
▁je	-2270
wide	-2271
▁hold	-2272
▁sect	-2273
▁susp	-2274
ention	-2275
▁means	-2276
▁thems	-2277
▁central	-2278
▁strateg	-2279
▁particip	-2280
▁themselves	-2281
▁hum	-2282
itors	-2283
▁pros	-2284
▁stat	-2285
arters	-2286
▁motor	-2287
▁prime	-2288
▁plants	-2289
▁attract	-2290
▁generally	-2291
▁independent	-2292
wr	-2293
ech	-2294
reau	-2295
▁sony	-2296
▁exist	-2297
▁surve	-2298
▁watch	-2299
▁bureau	-2300
▁leader	-2301
▁concerns	-2302
▁reserves	-2303
ott	-2304
▁saf	-2305
▁liqu	-2306
▁vote	-2307
earson	-2308
▁basis	-2309
▁advanc	-2310
▁shearson	-2311
▁scheduled	-2312
aph	-2313
uit	-2314
aily	-2315
pril	-2316
▁nav	-2317
iving	-2318
▁prim	-2319
▁april	-2320
▁colle	-2321
▁daily	-2322
▁person	-2323
▁property	-2324
▁3	-2325
crib	-2326
view	-2327
ening	-2328
▁adds	-2329
▁issued	-2330
▁reduced	-2331
▁richard	-2332
▁discount	-2333
▁environmental	-2334
sc	-2335
▁fri	-2336
▁men	-2337
▁sun	-2338
enses	-2339
▁night	-2340
▁assist	-2341
▁auction	-2342
▁largely	-2343
▁apparent	-2344
▁currency	-2345
▁district	-2346
▁involved	-2347
▁maintain	-2348
mak	-2349
mon	-2350
▁er	-2351
aced	-2352
haps	-2353
▁key	-2354
▁lack	-2355
▁repl	-2356
rength	-2357
▁doing	-2358
▁always	-2359
▁turned	-2360
▁perhaps	-2361
▁quickly	-2362
▁estimate	-2363
▁majority	-2364
▁strength	-2365
▁conference	-2366
▁regulators	-2367
ule	-2368
anta	-2369
▁occ	-2370
▁phil	-2371
▁areas	-2372
▁princ	-2373
▁range	-2374
▁morgan	-2375
▁supply	-2376
▁thrift	-2377
▁beginning	-2378
ann	-2379
ery	-2380
xel	-2381
▁gl	-2382
ties	-2383
▁fre	-2384
▁ahead	-2385
▁detail	-2386
▁drexel	-2387
▁french	-2388
▁needed	-2389
▁bankers	-2390
den	-2391
ico	-2392
ises	-2393
▁bur	-2394
▁cit	-2395
▁done	-2396
▁pick	-2397
veraged	-2398
▁impact	-2399
▁review	-2400
▁conserv	-2401
▁thought	-2402
▁accounts	-2403
utes	-2404
▁rad	-2405
▁excl	-2406
▁carri	-2407
▁caused	-2408
▁immedi	-2409
▁launch	-2410
▁interview	-2411
▁considered	-2412
▁bal	-2413
▁projects	-2414
co	-2415
egr	-2416
▁seen	-2417
▁temp	-2418
▁prosp	-2419
▁shows	-2420
▁super	-2421
▁scient	-2422
▁traded	-2423
▁natural	-2424
▁doc	-2425
▁worth	-2426
▁france	-2427
▁subject	-2428
ai	-2429
ape	-2430
ert	-2431
oid	-2432
ford	-2433
▁ban	-2434
▁dig	-2435
▁side	-2436
▁eight	-2437
▁treat	-2438
atively	-2439
▁brokers	-2440
▁planned	-2441
▁serious	-2442
▁underwr	-2443
eb	-2444
tra	-2445
▁nas	-2446
▁plc	-2447
▁vir	-2448
▁fair	-2449
▁paul	-2450
▁prep	-2451
▁sure	-2452
ursday	-2453
▁favor	-2454
▁disapp	-2455
▁promot	-2456
▁nothing	-2457
▁princip	-2458
▁sharply	-2459
▁thursday	-2460
▁community	-2461
▁distribut	-2462
▁situation	-2463
acy	-2464
self	-2465
▁aud	-2466
alled	-2467
ather	-2468
▁appear	-2469
▁housing	-2470
▁december	-2471
▁congressional	-2472
▁aim	-2473
index	-2474
ropri	-2475
▁kind	-2476
▁room	-2477
▁parts	-2478
▁space	-2479
▁anything	-2480
▁settlement	-2481
set	-2482
idel	-2483
▁mov	-2484
▁soc	-2485
▁wal	-2486
▁hope	-2487
nesday	-2488
▁fight	-2489
▁social	-2490
▁history	-2491
▁opportun	-2492
▁tradition	-2493
▁wednesday	-2494
▁manufacturers	-2495
oice	-2496
ored	-2497
▁veh	-2498
acity	-2499
atory	-2500
▁hurt	-2501
▁focus	-2502
▁limit	-2503
▁became	-2504
▁borrow	-2505
▁respon	-2506
▁simply	-2507
▁survey	-2508
▁premium	-2509
▁smaller	-2510
ball	-2511
iring	-2512
▁fast	-2513
▁land	-2514
▁perm	-2515
rought	-2516
▁asset	-2517
▁earned	-2518
▁jumped	-2519
▁opened	-2520
▁resour	-2521
▁created	-2522
▁justice	-2523
▁delivery	-2524
▁broadcast	-2525
ama	-2526
off	-2527
pre	-2528
▁ber	-2529
month	-2530
▁kore	-2531
orning	-2532
▁george	-2533
▁indeed	-2534
▁liquid	-2535
▁showed	-2536
▁yields	-2537
▁changed	-2538
▁produce	-2539
▁approach	-2540
▁continuing	-2541
▁protection	-2542
ph	-2543
yal	-2544
▁enc	-2545
▁stay	-2546
▁fixed	-2547
▁floor	-2548
▁brothers	-2549
▁required	-2550
▁volatility	-2551
eas	-2552
down	-2553
▁arm	-2554
▁non	-2555
▁tons	-2556
makers	-2557
▁light	-2558
▁taxes	-2559
▁women	-2560
▁summer	-2561
▁target	-2562
▁exports	-2563
▁receive	-2564
▁software	-2565
▁entertain	-2566
▁preferred	-2567
▁democratic	-2568
avel	-2569
ried	-2570
aining	-2571
▁carry	-2572
▁giant	-2573
▁resol	-2574
▁request	-2575
▁prosecut	-2576
pper	-2577
rate	-2578
▁ship	-2579
▁stop	-2580
▁tren	-2581
▁death	-2582
▁defend	-2583
▁partner	-2584
▁usually	-2585
▁recession	-2586
▁partnership	-2587
ming	-2588
omes	-2589
rist	-2590
▁blue	-2591
▁cand	-2592
▁note	-2593
▁green	-2594
▁hopes	-2595
▁human	-2596
▁moder	-2597
▁moody	-2598
▁oppos	-2599
▁owned	-2600
▁across	-2601
▁merger	-2602
▁prevent	-2603
dr	-2604
onald	-2605
▁game	-2606
▁thus	-2607
▁ways	-2608
▁media	-2609
▁active	-2610
▁filing	-2611
▁necess	-2612
▁closely	-2613
▁morning	-2614
▁session	-2615
▁appropri	-2616
ham	-2617
▁atl	-2618
▁max	-2619
▁spe	-2620
where	-2621
▁park	-2622
▁push	-2623
▁assum	-2624
▁react	-2625
▁anticip	-2626
▁imports	-2627
▁initial	-2628
▁benefits	-2629
▁minister	-2630
▁produced	-2631
▁conditions	-2632
▁announcement	-2633
orp	-2634
▁cbs	-2635
▁ful	-2636
▁squ	-2637
istic	-2638
▁vers	-2639
▁water	-2640
▁editor	-2641
▁strike	-2642
▁wanted	-2643
▁article	-2644
▁closing	-2645
▁children	-2646
▁resources	-2647
▁convertible	-2648
sy	-2649
▁entire	-2650
▁modest	-2651
▁travel	-2652
▁returns	-2653
▁capacity	-2654
▁entertainment	-2655
bo	-2656
▁mess	-2657
▁norm	-2658
▁guber	-2659
▁encour	-2660
▁francs	-2661
▁source	-2662
▁minimum	-2663
▁advanced	-2664
▁evidence	-2665
▁overseas	-2666
▁creditors	-2667
▁provision	-2668
▁associates	-2669
ood	-2670
ires	-2671
aging	-2672
▁size	-2673
▁pound	-2674
▁christ	-2675
▁actually	-2676
▁consumers	-2677
▁continues	-2678
▁leveraged	-2679
▁transactions	-2680
uty	-2681
wom	-2682
▁che	-2683
▁tom	-2684
woman	-2685
encies	-2686
▁final	-2687
▁smith	-2688
▁trial	-2689
▁expand	-2690
▁pilots	-2691
▁arbitrage	-2692
▁spokeswoman	-2693
iec	-2694
hman	-2695
▁30-	-2696
allen	-2697
share	-2698
▁conv	-2699
▁comes	-2700
▁field	-2701
▁prior	-2702
▁member	-2703
▁challen	-2704
▁directly	-2705
kn	-2706
aker	-2707
▁civ	-2708
older	-2709
▁kill	-2710
▁veto	-2711
▁tough	-2712
▁commit	-2713
▁letter	-2714
▁rising	-2715
▁sector	-2716
▁shareholder	-2717
no	-2718
tim	-2719
quent	-2720
▁lear	-2721
▁term	-2722
▁uncer	-2723
▁recomm	-2724
▁tempor	-2725
▁uncertain	-2726
▁introduced	-2727
ici	-2728
▁jr	-2729
ault	-2730
cing	-2731
iega	-2732
igin	-2733
iter	-2734
▁hut	-2735
▁tog	-2736
anges	-2737
▁avoid	-2738
▁behind	-2739
▁cancer	-2740
▁export	-2741
▁forced	-2742
▁origin	-2743
▁partly	-2744
▁machine	-2745
▁noriega	-2746
▁designed	-2747
▁followed	-2748
▁instance	-2749
▁together	-2750
▁americans	-2751
▁cop	-2752
▁hun	-2753
▁mut	-2754
▁stan	-2755
ounter	-2756
▁built	-2757
▁delay	-2758
▁extra	-2759
▁fully	-2760
▁merch	-2761
▁peter	-2762
▁sharp	-2763
▁mutual	-2764
▁retire	-2765
▁trader	-2766
▁quality	-2767
▁running	-2768
gia	-2769
rown	-2770
west	-2771
▁mex	-2772
▁mom	-2773
▁cell	-2774
icient	-2775
▁concl	-2776
▁sense	-2777
▁whole	-2778
▁confir	-2779
▁brought	-2780
▁decided	-2781
▁georgia	-2782
▁himself	-2783
▁popular	-2784
▁believes	-2785
▁separate	-2786
▁questions	-2787
bor	-2788
olog	-2789
▁aer	-2790
market	-2791
▁moves	-2792
▁petro	-2793
▁spent	-2794
▁disput	-2795
▁peters	-2796
▁response	-2797
▁apparently	-2798
▁economists	-2799
ady	-2800
ters	-2801
▁age	-2802
▁gave	-2803
▁altern	-2804
▁battle	-2805
▁except	-2806
▁lehman	-2807
▁offers	-2808
▁minutes	-2809
▁willing	-2810
▁agencies	-2811
▁specific	-2812
▁economist	-2813
▁effective	-2814
▁ple	-2815
erate	-2816
▁star	-2817
▁chain	-2818
▁civil	-2819
▁commer	-2820
▁matter	-2821
▁paying	-2822
▁ability	-2823
▁digital	-2824
▁farmers	-2825
▁various	-2826
▁operation	-2827
▁institutional	-2828
eck	-2829
ille	-2830
uary	-2831
▁sho	-2832
itted	-2833
preme	-2834
ville	-2835
▁flow	-2836
▁host	-2837
▁unch	-2838
ctions	-2839
▁influ	-2840
▁critic	-2841
▁ruling	-2842
▁spread	-2843
▁allowed	-2844
▁deliver	-2845
▁january	-2846
▁offices	-2847
▁overall	-2848
▁present	-2849
▁supreme	-2850
▁authority	-2851
▁quarterly	-2852
▁unchanged	-2853
idge	-2854
▁glo	-2855
▁mun	-2856
eless	-2857
istry	-2858
▁flat	-2859
▁jobs	-2860
▁purs	-2861
▁rule	-2862
▁integr	-2863
▁season	-2864
▁municip	-2865
▁declines	-2866
▁expenses	-2867
▁newspaper	-2868
▁contributed	-2869
▁professional	-2870
ats	-2871
ban	-2872
eth	-2873
ugo	-2874
lied	-2875
▁irs	-2876
▁nar	-2877
gency	-2878
ished	-2879
oming	-2880
▁hugo	-2881
▁soci	-2882
▁brand	-2883
▁cable	-2884
▁cause	-2885
▁exerc	-2886
▁ident	-2887
▁quake	-2888
▁funding	-2889
▁moreover	-2890
de	-2891
omon	-2892
icles	-2893
lying	-2894
▁idea	-2895
▁leav	-2896
▁pict	-2897
▁poll	-2898
estate	-2899
▁deals	-2900
▁needs	-2901
▁actual	-2902
▁figure	-2903
▁highly	-2904
▁quoted	-2905
▁trades	-2906
▁salomon	-2907
▁facilities	-2908
lin	-2909
rem	-2910
ption	-2911
▁fear	-2912
▁wage	-2913
overed	-2914
▁moved	-2915
counter	-2916
▁compar	-2917
▁elimin	-2918
▁kidder	-2919
▁pretax	-2920
▁unless	-2921
▁contribut	-2922
▁disappoint	-2923
ke	-2924
▁ap	-2925
agan	-2926
yond	-2927
▁tum	-2928
ament	-2929
▁warr	-2930
▁holds	-2931
▁debent	-2932
▁offset	-2933
▁signed	-2934
▁spring	-2935
▁widely	-2936
▁payment	-2937
▁provisions	-2938
eg	-2939
ask	-2940
ney	-2941
▁unf	-2942
▁date	-2943
▁link	-2944
▁merc	-2945
▁woman	-2946
▁forces	-2947
▁valley	-2948
▁greater	-2949
▁commerce	-2950
▁constitut	-2951
▁organization	-2952
wer	-2953
▁seg	-2954
iding	-2955
▁penn	-2956
▁afric	-2957
▁leave	-2958
▁track	-2959
▁exceed	-2960
▁headqu	-2961
▁machin	-2962
▁alleged	-2963
▁headquarters	-2964
▁rum	-2965
apers	-2966
▁hund	-2967
▁ital	-2968
ricane	-2969
▁alone	-2970
▁enter	-2971
▁spend	-2972
▁takes	-2973
▁thous	-2974
▁branch	-2975
▁create	-2976
▁narrow	-2977
▁margins	-2978
▁perform	-2979
▁improved	-2980
▁resigned	-2981
▁southern	-2982
▁democrats	-2983
▁hurricane	-2984
▁indicated	-2985
▁relatively	-2986
ems	-2987
▁tw	-2988
etic	-2989
▁adop	-2990
▁feat	-2991
▁flor	-2992
▁lang	-2993
▁rock	-2994
▁mount	-2995
▁appeal	-2996
▁crimin	-2997
▁hutton	-2998
▁sports	-2999
▁opening	-3000
▁package	-3001
▁pension	-3002
▁resident	-3003
▁developed	-3004
▁emergency	-3005
▁opposition	-3006
▁negotiations	-3007
ew	-3008
▁oh	-3009
line	-3010
▁ariz	-3011
▁cuts	-3012
▁charles	-3013
▁stanley	-3014
▁customer	-3015
▁ministry	-3016
▁exchanges	-3017
▁speculation	-3018
cil	-3019
ica	-3020
▁nb	-3021
urch	-3022
▁gor	-3023
▁hon	-3024
craft	-3025
▁burn	-3026
▁coop	-3027
bachev	-3028
▁match	-3029
▁rough	-3030
▁access	-3031
▁intell	-3032
▁obtain	-3033
▁reagan	-3034
▁victim	-3035
▁council	-3036
▁aircraft	-3037
▁provided	-3038
▁gorbachev	-3039
▁positions	-3040
▁separately	-3041
ogn	-3042
atic	-3043
bber	-3044
▁adm	-3045
▁ads	-3046
▁bit	-3047
▁otc	-3048
gains	-3049
▁hands	-3050
▁beyond	-3051
▁decade	-3052
▁insist	-3053
▁motors	-3054
▁poland	-3055
▁recogn	-3056
▁valued	-3057
▁worked	-3058
▁respond	-3059
▁section	-3060
▁producer	-3061
▁regional	-3062
▁standards	-3063
ah	-3064
arm	-3065
olid	-3066
▁uns	-3067
iliar	-3068
▁appl	-3069
▁doub	-3070
▁fill	-3071
▁jack	-3072
ective	-3073
▁radio	-3074
▁wrong	-3075
ination	-3076
▁adding	-3077
▁barrel	-3078
▁excess	-3079
▁climbed	-3080
▁existing	-3081
▁familiar	-3082
▁forecast	-3083
▁provides	-3084
▁australia	-3085
▁electronic	-3086
▁reflecting	-3087
▁investigation	-3088
daq	-3089
vem	-3090
apid	-3091
ental	-3092
▁draw	-3093
vember	-3094
▁baker	-3095
▁clean	-3096
▁matur	-3097
▁rapid	-3098
▁instru	-3099
▁nasdaq	-3100
▁safety	-3101
▁appears	-3102
▁internal	-3103
▁managing	-3104
▁november	-3105
▁planning	-3106
▁subordin	-3107
▁education	-3108
▁remaining	-3109
▁properties	-3110
▁electronics	-3111
▁individuals	-3112
na	-3113
▁q	-3114
ght	-3115
tin	-3116
▁ii	-3117
ifts	-3118
▁ach	-3119
▁lin	-3120
intex	-3121
▁bids	-3122
▁dink	-3123
▁film	-3124
▁goes	-3125
▁roll	-3126
uments	-3127
▁works	-3128
eration	-3129
▁chance	-3130
▁friend	-3131
▁invent	-3132
▁larger	-3133
▁moving	-3134
▁qintex	-3135
▁describ	-3136
▁dinkins	-3137
▁everyone	-3138
▁investig	-3139
▁proceeds	-3140
▁commodity	-3141
▁successful	-3142
▁competitors	-3143
▁substantial	-3144
gers	-3145
▁lou	-3146
▁tur	-3147
asing	-3148
isers	-3149
overy	-3150
▁bott	-3151
▁piec	-3152
▁town	-3153
▁shift	-3154
▁write	-3155
▁moment	-3156
▁option	-3157
▁prompt	-3158
▁amounts	-3159
▁carrier	-3160
▁totaled	-3161
▁version	-3162
▁dividends	-3163
▁purchases	-3164
▁sometimes	-3165
▁activities	-3166
▁regulatory	-3167
▁conservative	-3168
ux	-3169
bal	-3170
ios	-3171
▁di	-3172
▁lit	-3173
▁dead	-3174
▁unus	-3175
ansion	-3176
▁phone	-3177
▁candid	-3178
▁county	-3179
▁elected	-3180
▁johnson	-3181
▁complain	-3182
▁measures	-3183
▁materials	-3184
▁researchers	-3185
ulf	-3186
use	-3187
▁ce	-3188
wood	-3189
▁don	-3190
▁mus	-3191
▁rej	-3192
▁shi	-3193
▁gulf	-3194
▁hosp	-3195
▁santa	-3196
▁teach	-3197
▁trend	-3198
▁backed	-3199
▁events	-3200
▁lawyer	-3201
▁passed	-3202
▁thomas	-3203
▁hospital	-3204
▁negative	-3205
▁rejected	-3206
▁students	-3207
gs	-3208
ns	-3209
ewe	-3210
men	-3211
orm	-3212
lear	-3213
▁doz	-3214
▁inj	-3215
▁obl	-3216
▁sci	-3217
▁foot	-3218
▁guil	-3219
called	-3220
▁store	-3221
ewebber	-3222
▁attack	-3223
▁double	-3224
▁aggress	-3225
▁trouble	-3226
▁weekend	-3227
▁policies	-3228
▁lawmakers	-3229
▁municipal	-3230
▁debentures	-3231
▁interested	-3232
▁painewebber	-3233
bur	-3234
cher	-3235
come	-3236
▁saw	-3237
▁sem	-3238
▁feet	-3239
▁repe	-3240
▁bench	-3241
▁cited	-3242
▁story	-3243
▁affair	-3244
▁mexico	-3245
▁mostly	-3246
▁conduct	-3247
▁experts	-3248
▁considering	-3249
▁broadcasting	-3250
▁expectations	-3251
aur	-3252
com	-3253
asts	-3254
hatt	-3255
▁mcc	-3256
aceut	-3257
issan	-3258
▁road	-3259
▁true	-3260
hattan	-3261
▁apple	-3262
▁drugs	-3263
▁image	-3264
▁pharm	-3265
▁nissan	-3266
▁output	-3267
▁goldman	-3268
▁raising	-3269
▁restaur	-3270
aceutical	-3271
▁criminal	-3272
▁practice	-3273
▁certainly	-3274
▁manhattan	-3275
▁necessary	-3276
▁eventually	-3277
▁pharmaceutical	-3278
aud	-3279
lies	-3280
▁blo	-3281
▁grew	-3282
▁jose	-3283
▁fraud	-3284
▁louis	-3285
▁affect	-3286
▁giving	-3287
▁rating	-3288
▁details	-3289
▁factors	-3290
▁finally	-3291
▁finding	-3292
▁attention	-3293
▁reduction	-3294
▁accounting	-3295
▁consultant	-3296
▁traditional	-3297
itz	-3298
▁ey	-3299
lett	-3300
▁ans	-3301
▁cos	-3302
▁rob	-3303
iters	-3304
ommun	-3305
▁fuel	-3306
▁lend	-3307
▁brown	-3308
▁equal	-3309
▁grand	-3310
▁initi	-3311
▁miles	-3312
▁pence	-3313
▁franch	-3314
▁houses	-3315
▁convent	-3316
▁prepared	-3317
▁typically	-3318
▁retirement	-3319
▁opportunity	-3320
ommunications	-3321
met	-3322
draw	-3323
road	-3324
▁abs	-3325
▁nbc	-3326
▁pip	-3327
▁sil	-3328
▁tor	-3329
house	-3330
itten	-3331
▁mits	-3332
ulture	-3333
▁cross	-3334
▁domin	-3335
▁plast	-3336
▁affili	-3337
▁anyone	-3338
▁reform	-3339
▁clearly	-3340
▁neither	-3341
▁regular	-3342
▁replace	-3343
▁consolid	-3344
▁publicly	-3345
▁tomorrow	-3346
▁troubled	-3347
▁withdraw	-3348
▁expansion	-3349
▁everything	-3350
▁engineering	-3351
▁increasingly	-3352
pan	-3353
apse	-3354
leum	-3355
noon	-3356
ster	-3357
▁mal	-3358
aries	-3359
asons	-3360
▁fire	-3361
▁mail	-3362
▁opin	-3363
▁scen	-3364
▁crude	-3365
▁gives	-3366
▁panel	-3367
▁brands	-3368
▁divers	-3369
▁specul	-3370
▁tender	-3371
▁college	-3372
▁heavily	-3373
▁protect	-3374
▁collapse	-3375
▁combined	-3376
▁complete	-3377
▁disaster	-3378
▁minority	-3379
▁afternoon	-3380
▁petroleum	-3381
▁treatment	-3382
▁advertisers	-3383
▁immediately	-3384
▁restrictions	-3385
eing	-3386
▁feb	-3387
▁pul	-3388
allas	-3389
usion	-3390
▁banc	-3391
▁bull	-3392
▁ones	-3393
▁aimed	-3394
▁advant	-3395
▁boeing	-3396
▁dallas	-3397
▁sought	-3398
▁deposit	-3399
▁numbers	-3400
▁believed	-3401
▁original	-3402
▁declining	-3403
▁expensive	-3404
▁magazines	-3405
▁technical	-3406
▁corporations	-3407
to	-3408
isf	-3409
▁sy	-3410
agon	-3411
dden	-3412
▁mur	-3413
▁pit	-3414
apter	-3415
organ	-3416
urred	-3417
▁cert	-3418
▁easy	-3419
▁kept	-3420
▁ohio	-3421
▁pent	-3422
▁prud	-3423
▁shop	-3424
▁tour	-3425
rovers	-3426
▁amend	-3427
▁copper	-3428
▁police	-3429
▁sudden	-3430
▁appoint	-3431
▁bidding	-3432
▁chapter	-3433
▁consist	-3434
▁monthly	-3435
▁players	-3436
▁rebound	-3437
▁reorgan	-3438
▁revised	-3439
▁someone	-3440
▁affected	-3441
▁northern	-3442
▁pentagon	-3443
▁concerned	-3444
▁ownership	-3445
▁utilities	-3446
▁controvers	-3447
▁republican	-3448
▁relationship	-3449
▁appropriations	-3450
▁reorganization	-3451
fr	-3452
mb	-3453
wa	-3454
bby	-3455
iff	-3456
▁cy	-3457
▁cho	-3458
▁rub	-3459
▁scr	-3460
erous	-3461
etary	-3462
▁ball	-3463
▁gets	-3464
▁jury	-3465
▁plus	-3466
▁runs	-3467
▁trip	-3468
igence	-3469
▁award	-3470
▁color	-3471
▁drive	-3472
▁items	-3473
▁korea	-3474
▁print	-3475
▁tried	-3476
▁falling	-3477
▁plunged	-3478
▁sources	-3479
▁determin	-3480
▁monetary	-3481
▁weakness	-3482
▁mortgages	-3483
▁attributed	-3484
▁requirements	-3485
▁subordinated	-3486
ob	-3487
ona	-3488
syl	-3489
▁eg	-3490
iver	-3491
scow	-3492
well	-3493
▁fel	-3494
▁lic	-3495
▁oun	-3496
▁sam	-3497
▁spl	-3498
▁wit	-3499
igger	-3500
▁cray	-3501
▁live	-3502
▁neigh	-3503
▁owner	-3504
▁signs	-3505
▁stein	-3506
▁truck	-3507
▁bridge	-3508
▁lawson	-3509
▁moscow	-3510
▁signal	-3511
▁centers	-3512
▁england	-3513
▁roughly	-3514
▁soviets	-3515
▁trigger	-3516
▁underst	-3517
▁controls	-3518
▁chemicals	-3519
▁developing	-3520
▁difference	-3521
▁improvement	-3522
▁acquisitions	-3523
zo	-3524
00-	-3525
dle	-3526
icon	-3527
mond	-3528
▁cas	-3529
▁mac	-3530
▁mic	-3531
▁swe	-3532
▁syn	-3533
force	-3534
▁bask	-3535
▁coal	-3536
▁apart	-3537
▁coast	-3538
▁defin	-3539
▁hotel	-3540
▁quant	-3541
▁steps	-3542
▁swiss	-3543
▁debate	-3544
▁parties	-3545
▁statist	-3546
▁deposits	-3547
▁employee	-3548
▁facility	-3549
▁principal	-3550
▁experience	-3551
▁competitive	-3552
ida	-3553
oth	-3554
str	-3555
achs	-3556
akes	-3557
care	-3558
▁ess	-3559
▁hou	-3560
ading	-3561
bling	-3562
osure	-3563
▁corn	-3564
▁pace	-3565
▁purp	-3566
backed	-3567
itting	-3568
onents	-3569
▁homes	-3570
▁movie	-3571
▁sachs	-3572
▁traff	-3573
▁ending	-3574
▁unlike	-3575
idelines	-3576
▁florida	-3577
▁houston	-3578
▁pending	-3579
▁society	-3580
▁recovery	-3581
▁released	-3582
▁vehicles	-3583
▁fundament	-3584
▁liquidity	-3585
▁profitable	-3586
▁publishing	-3587
▁represents	-3588
80	-3589
he	-3590
jo	-3591
eau	-3592
bond	-3593
loyd	-3594
▁coc	-3595
▁usx	-3596
▁vac	-3597
▁lose	-3598
▁mill	-3599
icians	-3600
ressed	-3601
▁chips	-3602
▁intel	-3603
▁lloyd	-3604
▁ready	-3605
▁speed	-3606
▁global	-3607
▁headed	-3608
▁placed	-3609
▁region	-3610
▁campeau	-3611
▁dispute	-3612
▁failure	-3613
▁highest	-3614
▁powerful	-3615
▁franchise	-3616
▁primarily	-3617
▁litigation	-3618
ook	-3619
uct	-3620
urt	-3621
▁ul	-3622
aded	-3623
onto	-3624
rote	-3625
▁cat	-3626
▁sel	-3627
▁tit	-3628
grade	-3629
iders	-3630
iling	-3631
▁amid	-3632
▁king	-3633
▁ster	-3634
▁doubt	-3635
▁paris	-3636
▁sells	-3637
▁ultim	-3638
▁wrote	-3639
▁cities	-3640
▁couple	-3641
▁pretty	-3642
▁values	-3643
▁contain	-3644
▁nations	-3645
▁settled	-3646
▁toronto	-3647
▁victims	-3648
▁maturity	-3649
▁purchased	-3650
▁thousands	-3651
▁scientists	-3652
▁continental	-3653
▁established	-3654
br	-3655
gl	-3656
ko	-3657
bser	-3658
ucks	-3659
ying	-3660
▁fle	-3661
▁fuj	-3662
▁tim	-3663
atchi	-3664
▁achie	-3665
▁crime	-3666
▁mayor	-3667
▁obser	-3668
▁quite	-3669
▁risks	-3670
▁sugar	-3671
▁listed	-3672
▁actions	-3673
▁balance	-3674
▁concent	-3675
▁ratings	-3676
▁release	-3677
▁saatchi	-3678
▁certific	-3679
▁starting	-3680
▁surprising	-3681
▁intelligence	-3682
ze	-3683
hib	-3684
sel	-3685
ibas	-3686
▁sli	-3687
inese	-3688
▁whom	-3689
▁maybe	-3690
▁scand	-3691
▁split	-3692
▁charged	-3693
▁chinese	-3694
▁paribas	-3695
▁thrifts	-3696
▁waiting	-3697
▁supplies	-3698
▁ventures	-3699
▁confidence	-3700
▁uncertainty	-3701
ha	-3702
know	-3703
rugg	-3704
▁ease	-3705
▁mind	-3706
▁shut	-3707
▁sort	-3708
▁virt	-3709
▁illeg	-3710
▁words	-3711
knowled	-3712
▁mainly	-3713
▁normal	-3714
▁philip	-3715
▁resist	-3716
▁strugg	-3717
▁arrange	-3718
▁portion	-3719
▁putting	-3720
▁reasons	-3721
▁segment	-3722
▁launched	-3723
▁thatcher	-3724
▁acknowled	-3725
▁elections	-3726
▁involving	-3727
▁throughout	-3728
arr	-3729
equ	-3730
sch	-3731
icts	-3732
▁anc	-3733
▁ign	-3734
▁mae	-3735
▁core	-3736
▁rein	-3737
▁brief	-3738
▁tight	-3739
▁usual	-3740
▁guilty	-3741
▁proced	-3742
▁arizona	-3743
▁effects	-3744
▁ordered	-3745
▁showing	-3746
▁slowing	-3747
▁election	-3748
ci	-3749
ef	-3750
let	-3751
oln	-3752
ute	-3753
ries	-3754
▁toy	-3755
enced	-3756
yield	-3757
▁alan	-3758
▁linc	-3759
▁lock	-3760
▁sear	-3761
ambert	-3762
ospace	-3763
uclear	-3764
▁model	-3765
oration	-3766
▁client	-3767
▁losing	-3768
▁recall	-3769
▁relief	-3770
▁seemed	-3771
▁steven	-3772
▁advance	-3773
▁complex	-3774
▁lincoln	-3775
▁adjusted	-3776
▁aerospace	-3777
▁buildings	-3778
▁communist	-3779
▁predicted	-3780
▁proposals	-3781
▁consulting	-3782
▁prudential	-3783
-1	-3784
yle	-3785
vest	-3786
▁eag	-3787
▁crop	-3788
▁navy	-3789
▁prel	-3790
▁surv	-3791
▁downt	-3792
▁heart	-3793
▁liber	-3794
▁mccaw	-3795
▁rated	-3796
▁renew	-3797
▁tests	-3798
▁worry	-3799
quently	-3800
▁bigger	-3801
▁indian	-3802
▁middle	-3803
▁surged	-3804
▁voters	-3805
▁convict	-3806
▁healthy	-3807
▁leaving	-3808
▁managed	-3809
▁primary	-3810
▁unusual	-3811
▁remained	-3812
▁benchmark	-3813
▁associated	-3814
▁republicans	-3815
▁substantially	-3816
ple	-3817
sen	-3818
▁ec	-3819
reds	-3820
▁amr	-3821
▁dut	-3822
otive	-3823
▁dism	-3824
▁gard	-3825
▁phot	-3826
▁prec	-3827
▁uses	-3828
▁agric	-3829
▁buyer	-3830
▁carol	-3831
▁demon	-3832
▁fewer	-3833
▁lobby	-3834
▁refin	-3835
▁accord	-3836
▁decide	-3837
▁ground	-3838
▁morris	-3839
▁soared	-3840
▁thinks	-3841
▁appeals	-3842
▁circuit	-3843
▁obvious	-3844
▁talking	-3845
▁hundreds	-3846
▁slowdown	-3847
▁stations	-3848
▁stronger	-3849
▁transfer	-3850
▁advantage	-3851
▁amendment	-3852
▁assistant	-3853
▁elsewhere	-3854
▁automotive	-3855
▁controlled	-3856
▁representatives	-3857
inn	-3858
furt	-3859
icar	-3860
▁ham	-3861
▁oak	-3862
ephen	-3863
ersey	-3864
icorp	-3865
oring	-3866
▁gene	-3867
▁gone	-3868
▁none	-3869
▁synd	-3870
ashion	-3871
▁faces	-3872
▁fears	-3873
▁pages	-3874
▁sides	-3875
▁conced	-3876
▁incent	-3877
▁jersey	-3878
▁mainfr	-3879
▁switch	-3880
▁century	-3881
▁damaged	-3882
▁experim	-3883
▁lending	-3884
▁opinion	-3885
▁respect	-3886
▁schools	-3887
▁stephen	-3888
▁stopped	-3889
▁annually	-3890
▁appeared	-3891
▁networks	-3892
▁warrants	-3893
▁frankfurt	-3894
▁practices	-3895
▁producing	-3896
▁temporary	-3897
▁integrated	-3898
▁prosecutors	-3899
▁responsible	-3900
▁underwriters	-3901
cle	-3902
ero	-3903
ete	-3904
ror	-3905
bles	-3906
ishi	-3907
rael	-3908
▁lux	-3909
▁pen	-3910
point	-3911
▁felt	-3912
▁fres	-3913
▁spot	-3914
▁stem	-3915
▁wide	-3916
arents	-3917
ubishi	-3918
▁freed	-3919
▁italy	-3920
▁mixed	-3921
▁slide	-3922
▁telec	-3923
▁coupon	-3924
▁househ	-3925
▁israel	-3926
▁luxury	-3927
▁modern	-3928
▁trucks	-3929
▁barrels	-3930
▁burnham	-3931
▁conclud	-3932
▁critics	-3933
▁involve	-3934
▁operate	-3935
▁parents	-3936
▁positive	-3937
▁sterling	-3938
▁strategic	-3939
▁mitsubishi	-3940
▁navigation	-3941
▁significantly	-3942
col	-3943
pay	-3944
xon	-3945
anks	-3946
▁cam	-3947
▁cru	-3948
acter	-3949
burgh	-3950
erson	-3951
▁barg	-3952
▁cast	-3953
▁hill	-3954
▁jeff	-3955
urance	-3956
▁bells	-3957
▁dozen	-3958
▁exxon	-3959
▁gross	-3960
▁hills	-3961
▁pipel	-3962
▁refer	-3963
▁sound	-3964
▁flight	-3965
▁metals	-3966
▁panama	-3967
▁played	-3968
▁satisf	-3969
▁taxpay	-3970
▁wonder	-3971
▁affairs	-3972
▁devices	-3973
▁follows	-3974
▁opposed	-3975
▁protest	-3976
▁insurers	-3977
▁manville	-3978
▁neighbor	-3979
▁reflects	-3980
▁challenge	-3981
▁direction	-3982
▁documents	-3983
▁structure	-3984
▁suggested	-3985
▁virtually	-3986
▁australian	-3987
▁employment	-3988
70	-3989
dy	-3990
ra	-3991
olf	-3992
oph	-3993
▁bi	-3994
▁du	-3995
iety	-3996
ords	-3997
uits	-3998
▁hud	-3999
antic	-4000
▁asse	-4001
▁goal	-4002
▁puts	-4003
▁wind	-4004
lywood	-4005
▁books	-4006
▁brook	-4007
▁music	-4008
▁sears	-4009
holders	-4010
pacific	-4011
▁citing	-4012
▁deputy	-4013
▁models	-4014
▁patent	-4015
▁rumors	-4016
▁accused	-4017
▁adviser	-4018
▁counsel	-4019
▁hearing	-4020
▁hostile	-4021
▁monitor	-4022
▁nuclear	-4023
▁traffic	-4024
▁utility	-4025
▁accepted	-4026
▁baseball	-4027
▁operates	-4028
▁hollywood	-4029
▁liability	-4030
▁reflected	-4031
▁defendants	-4032
▁leadership	-4033
▁instruments	-4034
▁specialists	-4035
▁distribution	-4036
go	-4037
iet	-4038
ixt	-4039
ague	-4040
dson	-4041
gary	-4042
ixte	-4043
▁bat	-4044
▁mcd	-4045
▁sea	-4046
▁sir	-4047
andon	-4048
▁alli	-4049
▁army	-4050
▁beat	-4051
▁fine	-4052
▁hall	-4053
▁mary	-4054
▁walk	-4055
▁breed	-4056
▁exact	-4057
▁loyal	-4058
▁mixte	-4059
▁quiet	-4060
▁seats	-4061
▁voted	-4062
issions	-4063
▁africa	-4064
▁happen	-4065
▁abandon	-4066
▁enterpr	-4067
▁keeping	-4068
▁contrast	-4069
▁exercise	-4070
▁essential	-4071
▁influence	-4072
▁residents	-4073
▁suspended	-4074
▁conventional	-4075
vy	-4076
cul	-4077
ogr	-4078
▁ep	-4079
food	-4080
fort	-4081
ifth	-4082
iled	-4083
isis	-4084
renz	-4085
▁ens	-4086
▁exc	-4087
▁deep	-4088
▁outl	-4089
▁task	-4090
ograph	-4091
ushing	-4092
▁fifth	-4093
▁front	-4094
▁krenz	-4095
▁surge	-4096
▁twice	-4097
▁calcul	-4098
▁crisis	-4099
▁fairly	-4100
▁possib	-4101
▁weekly	-4102
▁counter	-4103
▁cutting	-4104
▁damages	-4105
▁pricing	-4106
▁returned	-4107
▁trillion	-4108
▁machinists	-4109
▁newspapers	-4110
▁certificates	-4111
af	-4112
ila	-4113
look	-4114
reci	-4115
▁abc	-4116
▁dan	-4117
▁pal	-4118
ilies	-4119
ruary	-4120
▁dang	-4121
▁wake	-4122
▁displ	-4123
▁older	-4124
▁panic	-4125
▁blacks	-4126
▁golden	-4127
▁living	-4128
▁boosted	-4129
▁lambert	-4130
▁outlook	-4131
▁station	-4132
▁citicorp	-4133
▁families	-4134
▁february	-4135
▁finished	-4136
▁intended	-4137
▁telerate	-4138
▁decisions	-4139
▁immediate	-4140
▁professor	-4141
▁retailers	-4142
▁comparable	-4143
▁statistics	-4144
▁commitments	-4145
iqu	-4146
▁ow	-4147
aret	-4148
berg	-4149
comm	-4150
elan	-4151
olds	-4152
▁amb	-4153
▁cds	-4154
▁wil	-4155
ensus	-4156
urday	-4157
▁bail	-4158
▁grad	-4159
▁save	-4160
illips	-4161
▁citiz	-4162
▁games	-4163
▁nicar	-4164
▁penal	-4165
▁piece	-4166
▁shown	-4167
▁voice	-4168
▁wells	-4169
ecutive	-4170
ication	-4171
▁courts	-4172
▁interp	-4173
▁joined	-4174
▁phelan	-4175
▁worried	-4176
▁happened	-4177
▁nicaragu	-4178
▁phillips	-4179
▁saturday	-4180
▁senators	-4181
▁supposed	-4182
▁attorneys	-4183
▁condition	-4184
▁determined	-4185
▁extraordin	-4186
▁resolution	-4187
cts	-4188
nel	-4189
rys	-4190
▁od	-4191
azil	-4192
itan	-4193
uage	-4194
wise	-4195
▁lee	-4196
arely	-4197
▁fred	-4198
▁lift	-4199
▁mult	-4200
▁scre	-4201
▁spir	-4202
▁wild	-4203
romise	-4204
rysler	-4205
▁argue	-4206
▁glass	-4207
▁grant	-4208
▁meant	-4209
▁prove	-4210
▁royal	-4211
iminary	-4212
▁abroad	-4213
▁asking	-4214
▁brazil	-4215
▁fallen	-4216
▁joseph	-4217
▁movies	-4218
▁search	-4219
iconduct	-4220
▁convers	-4221
▁highway	-4222
▁studies	-4223
▁written	-4224
▁chrysler	-4225
▁declared	-4226
▁demonstr	-4227
▁language	-4228
▁operator	-4229
▁reaction	-4230
▁suggests	-4231
▁volatile	-4232
▁confirmed	-4233
▁prospects	-4234
▁providing	-4235
▁technolog	-4236
▁agreements	-4237
▁candidates	-4238
▁compromise	-4239
▁guidelines	-4240
▁alternative	-4241
▁discussions	-4242
▁preliminary	-4243
▁semiconduct	-4244
aq	-4245
jr	-4246
alf	-4247
ites	-4248
rect	-4249
roun	-4250
▁cub	-4251
▁fer	-4252
▁rjr	-4253
iants	-4254
ounds	-4255
tings	-4256
▁nerv	-4257
▁safe	-4258
▁word	-4259
remely	-4260
▁names	-4261
▁ounce	-4262
▁serve	-4263
▁compaq	-4264
▁exclus	-4265
▁giants	-4266
▁judges	-4267
▁object	-4268
▁nervous	-4269
▁oakland	-4270
▁refused	-4271
▁slipped	-4272
▁vehicle	-4273
▁advisers	-4274
▁audience	-4275
▁bureaucr	-4276
▁disclose	-4277
▁prospect	-4278
▁training	-4279
▁troubles	-4280
▁extremely	-4281
▁guarantee	-4282
▁recommend	-4283
▁reporting	-4284
▁assistance	-4285
▁guarantees	-4286
▁initiative	-4287
iny	-4288
ota	-4289
van	-4290
▁emb	-4291
▁eth	-4292
▁nom	-4293
rence	-4294
state	-4295
▁carl	-4296
▁exam	-4297
▁file	-4298
▁foun	-4299
▁plum	-4300
▁pull	-4301
▁ring	-4302
▁russ	-4303
▁tenn	-4304
▁upon	-4305
itrust	-4306
lement	-4307
▁brady	-4308
▁chann	-4309
▁marsh	-4310
▁urban	-4311
▁worse	-4312
▁church	-4313
▁denied	-4314
▁drives	-4315
▁regard	-4316
▁reject	-4317
▁silver	-4318
▁address	-4319
▁applied	-4320
▁atlanta	-4321
▁entered	-4322
▁matters	-4323
▁scandal	-4324
▁suffered	-4325
▁antitrust	-4326
▁aggressive	-4327
▁discovered	-4328
▁interstate	-4329
▁purchasing	-4330
▁authorities	-4331
▁representing	-4332
ij	-4333
die	-4334
ateg	-4335
iven	-4336
pson	-4337
▁eye	-4338
▁rom	-4339
earns	-4340
ijing	-4341
orter	-4342
theby	-4343
▁1980	-4344
▁arch	-4345
▁asia	-4346
▁boom	-4347
▁halt	-4348
▁pact	-4349
▁type	-4350
anging	-4351
▁categ	-4352
▁chase	-4353
▁looks	-4354
▁style	-4355
▁usair	-4356
▁views	-4357
▁votes	-4358
▁argued	-4359
▁extent	-4360
▁formed	-4361
▁repair	-4362
▁served	-4363
▁termin	-4364
▁beijing	-4365
▁comfort	-4366
▁fashion	-4367
▁freedom	-4368
▁friends	-4369
▁setting	-4370
▁sotheby	-4371
▁stearns	-4372
forcement	-4373
▁coverage	-4374
▁extended	-4375
▁meetings	-4376
▁expressed	-4377
▁reporters	-4378
▁underlying	-4379
▁consultants	-4380
▁negotiating	-4381
▁possibility	-4382
▁proceedings	-4383
▁regulations	-4384
2-	-4385
mo	-4386
ta	-4387
eat	-4388
ein	-4389
osa	-4390
rep	-4391
rew	-4392
ancy	-4393
outh	-4394
rees	-4395
▁fal	-4396
▁gam	-4397
▁mca	-4398
▁nik	-4399
agues	-4400
annie	-4401
ikely	-4402
koosa	-4403
night	-4404
▁alex	-4405
▁card	-4406
▁chev	-4407
▁club	-4408
▁join	-4409
▁rout	-4410
▁sust	-4411
▁tool	-4412
▁basic	-4413
▁deman	-4414
▁newly	-4415
▁visit	-4416
▁basket	-4417
▁choice	-4418
▁discip	-4419
▁donald	-4420
▁edward	-4421
▁fannie	-4422
▁forest	-4423
▁handle	-4424
▁intent	-4425
▁prison	-4426
▁pursue	-4427
▁sunday	-4428
▁syndic	-4429
▁voting	-4430
▁default	-4431
▁equival	-4432
▁factory	-4433
▁nekoosa	-4434
▁tumbled	-4435
▁critical	-4436
▁merchand	-4437
▁politics	-4438
▁shopping	-4439
▁succeeds	-4440
▁unlikely	-4441
▁confident	-4442
▁initially	-4443
▁retailing	-4444
▁triggered	-4445
▁colleagues	-4446
▁generation	-4447
▁differences	-4448
gm	-4449
ne	-4450
ept	-4451
lia	-4452
une	-4453
▁og	-4454
abil	-4455
oses	-4456
rowd	-4457
▁10-	-4458
▁fem	-4459
▁inf	-4460
▁jew	-4461
▁mgm	-4462
aking	-4463
berts	-4464
itzer	-4465
▁caut	-4466
▁enjo	-4467
▁hook	-4468
▁remo	-4469
▁smok	-4470
▁ties	-4471
▁wife	-4472
▁check	-4473
▁creat	-4474
▁crowd	-4475
▁rival	-4476
▁river	-4477
▁solid	-4478
liament	-4479
▁banker	-4480
▁costly	-4481
▁square	-4482
▁swings	-4483
▁warned	-4484
▁concept	-4485
▁dismiss	-4486
▁flights	-4487
▁intends	-4488
▁organiz	-4489
▁picture	-4490
▁promise	-4491
▁records	-4492
▁roberts	-4493
▁switzer	-4494
▁cautious	-4495
▁patients	-4496
▁pictures	-4497
▁pipeline	-4498
▁publisher	-4499
▁shipments	-4500
▁specialty	-4501
▁taxpayers	-4502
▁membership	-4503
▁parliament	-4504
▁consecutive	-4505
▁switzerland	-4506
▁extraordinary	-4507
kl	-4508
bon	-4509
iami	-4510
mine	-4511
▁ver	-4512
apore	-4513
iture	-4514
stock	-4515
▁1970	-4516
▁doct	-4517
▁door	-4518
▁fort	-4519
▁rail	-4520
▁vide	-4521
▁wang	-4522
▁wars	-4523
▁chanc	-4524
▁cheap	-4525
▁lives	-4526
▁miami	-4527
▁worst	-4528
▁assess	-4529
▁chains	-4530
▁easily	-4531
▁greens	-4532
▁league	-4533
▁nobody	-4534
▁reluct	-4535
▁revers	-4536
▁adopted	-4537
▁covered	-4538
▁insured	-4539
▁mountain	-4540
▁movement	-4541
▁quarters	-4542
▁shipping	-4543
▁concluded	-4544
▁criticism	-4545
▁described	-4546
▁editorial	-4547
▁investing	-4548
▁personnel	-4549
▁singapore	-4550
▁obligation	-4551
▁population	-4552
▁processing	-4553
▁strategies	-4554
▁circulation	-4555
▁exploration	-4556
▁industrials	-4557
▁manufacturer	-4558
▁participants	-4559
▁responsibility	-4560
\/	-4561
gun	-4562
tax	-4563
unt	-4564
bank	-4565
ebec	-4566
rest	-4567
uses	-4568
▁wis	-4569
adium	-4570
ittee	-4571
ropol	-4572
ument	-4573
▁acad	-4574
▁chip	-4575
▁cold	-4576
▁died	-4577
▁disk	-4578
▁iron	-4579
▁subm	-4580
arding	-4581
▁begun	-4582
▁knows	-4583
▁reput	-4584
▁ruled	-4585
▁squee	-4586
▁stage	-4587
▁bottom	-4588
▁caught	-4589
▁faster	-4590
▁mother	-4591
▁nature	-4592
▁pushed	-4593
▁calling	-4594
▁ceiling	-4595
▁illegal	-4596
▁lenders	-4597
▁rapidly	-4598
▁shortly	-4599
▁subcomm	-4600
ropolitan	-4601
▁carriers	-4602
▁indicate	-4603
▁register	-4604
▁offerings	-4605
▁privately	-4606
▁resulting	-4607
▁specialist	-4608
▁structural	-4609
▁institution	-4610
▁metropolitan	-4611
▁subcommittee	-4612
▁constitutional	-4613
din	-4614
kin	-4615
uel	-4616
aces	-4617
apol	-4618
ikes	-4619
mbly	-4620
outs	-4621
pack	-4622
▁hew	-4623
▁lay	-4624
casts	-4625
estro	-4626
ivity	-4627
tered	-4628
▁copy	-4629
▁dise	-4630
▁flag	-4631
▁mine	-4632
▁tent	-4633
apolis	-4634
▁grown	-4635
▁mitch	-4636
▁optim	-4637
▁pitts	-4638
▁spain	-4639
▁title	-4640
▁trump	-4641
packard	-4642
related	-4643
▁experi	-4644
▁expert	-4645
▁father	-4646
▁histor	-4647
▁limits	-4648
▁mining	-4649
▁severe	-4650
▁speech	-4651
▁unable	-4652
▁bailout	-4653
▁carried	-4654
▁hewlett	-4655
▁jointly	-4656
▁recover	-4657
reciation	-4658
▁alliance	-4659
▁assembly	-4660
▁football	-4661
▁millions	-4662
▁mitchell	-4663
▁normally	-4664
▁acquiring	-4665
▁excluding	-4666
▁forecasts	-4667
▁observers	-4668
▁consistent	-4669
▁pittsburgh	-4670
▁restaurant	-4671
▁scientific	-4672
▁ultimately	-4673
▁understand	-4674
▁temporarily	-4675
▁controversial	-4676
▁opportunities	-4677
rs	-4678
ua	-4679
pet	-4680
uff	-4681
▁cd	-4682
▁ny	-4683
acle	-4684
ffee	-4685
illy	-4686
inum	-4687
irds	-4688
trol	-4689
vard	-4690
▁asp	-4691
▁die	-4692
▁tro	-4693
overs	-4694
▁cham	-4695
▁heat	-4696
▁sees	-4697
employ	-4698
▁attit	-4699
▁faced	-4700
▁novel	-4701
▁urged	-4702
roducts	-4703
▁cancel	-4704
▁coffee	-4705
▁extend	-4706
▁factor	-4707
▁fields	-4708
▁resume	-4709
▁simple	-4710
▁compens	-4711
▁helping	-4712
▁lowered	-4713
▁massive	-4714
▁mention	-4715
▁pattern	-4716
▁plummet	-4717
▁quantum	-4718
▁student	-4719
▁atlantic	-4720
▁carolina	-4721
▁creating	-4722
▁invested	-4723
▁presence	-4724
▁repeated	-4725
▁requires	-4726
▁democracy	-4727
▁expanding	-4728
▁takeovers	-4729
▁collection	-4730
▁governments	-4731
▁inventories	-4732
▁politicians	-4733
▁resignation	-4734
hia	-4735
ung	-4736
▁va	-4737
aint	-4738
glas	-4739
moil	-4740
quir	-4741
▁bes	-4742
▁guy	-4743
▁las	-4744
▁ski	-4745
adelp	-4746
apsed	-4747
bache	-4748
fully	-4749
oline	-4750
▁anti	-4751
▁dump	-4752
▁ross	-4753
▁sand	-4754
▁sens	-4755
▁sets	-4756
▁shot	-4757
▁stor	-4758
▁tand	-4759
▁tied	-4760
▁weap	-4761
▁zero	-4762
liance	-4763
manent	-4764
▁aside	-4765
▁barri	-4766
▁davis	-4767
▁grain	-4768
▁slump	-4769
▁suits	-4770
▁throw	-4771
▁types	-4772
▁waste	-4773
▁assume	-4774
▁ensure	-4775
▁inquir	-4776
▁metric	-4777
▁miller	-4778
▁virgin	-4779
adelphia	-4780
▁douglas	-4781
▁learned	-4782
▁pushing	-4783
▁realize	-4784
▁turmoil	-4785
▁turning	-4786
▁typical	-4787
▁branches	-4788
▁centrust	-4789
▁citizens	-4790
▁gasoline	-4791
▁lawsuits	-4792
▁possibly	-4793
▁progress	-4794
▁reducing	-4795
▁collapsed	-4796
▁everybody	-4797
▁household	-4798
▁permanent	-4799
▁guaranteed	-4800
▁cooperation	-4801
▁merchandise	-4802
▁philadelphia	-4803
▁technologies	-4804
▁semiconductor	-4805
▁administrative	-4806
hol	-4807
▁hy	-4808
▁ded	-4809
▁fit	-4810
▁hel	-4811
▁mob	-4812
▁van	-4813
ature	-4814
forms	-4815
▁aids	-4816
▁brew	-4817
▁disp	-4818
▁dram	-4819
▁euro	-4820
▁flex	-4821
▁lett	-4822
▁peak	-4823
▁phys	-4824
▁roth	-4825
▁tick	-4826
▁wait	-4827
▁agent	-4828
▁badly	-4829
▁costa	-4830
▁heads	-4831
▁heard	-4832
▁hired	-4833
▁medic	-4834
▁peace	-4835
▁ratio	-4836
▁seeks	-4837
▁spons	-4838
▁users	-4839
olution	-4840
theless	-4841
▁agents	-4842
▁archit	-4843
▁easier	-4844
▁facing	-4845
▁garden	-4846
▁harder	-4847
▁indict	-4848
▁studio	-4849
▁approve	-4850
▁connect	-4851
▁hungary	-4852
▁lawsuit	-4853
▁letters	-4854
▁playing	-4855
▁reforms	-4856
▁stories	-4857
ification	-4858
▁allowing	-4859
▁cellular	-4860
▁comments	-4861
▁contends	-4862
▁friendly	-4863
▁hearings	-4864
▁lawrence	-4865
▁moderate	-4866
▁prompted	-4867
▁techniqu	-4868
▁committed	-4869
▁efficient	-4870
▁otherwise	-4871
▁sufficient	-4872
▁corporation	-4873
▁alternatives	-4874
▁nevertheless	-4875
▁fi	-4876
argo	-4877
chip	-4878
nard	-4879
ysis	-4880
▁bol	-4881
▁cig	-4882
▁gap	-4883
▁lib	-4884
▁pun	-4885
▁ran	-4886
known	-4887
owned	-4888
place	-4889
▁code	-4890
▁dean	-4891
▁rall	-4892
▁soph	-4893
ormous	-4894
▁accom	-4895
▁drink	-4896
▁fidel	-4897
▁india	-4898
▁metal	-4899
▁micro	-4900
▁rooms	-4901
▁scott	-4902
▁veter	-4903
▁advice	-4904
▁career	-4905
▁inside	-4906
▁martin	-4907
▁passen	-4908
▁superv	-4909
▁airport	-4910
▁awarded	-4911
▁cigaret	-4912
▁culture	-4913
▁expense	-4914
▁freddie	-4915
isticated	-4916
▁bringing	-4917
▁enormous	-4918
▁expanded	-4919
▁fidelity	-4920
▁identify	-4921
▁marshall	-4922
▁resulted	-4923
▁character	-4924
▁greenspan	-4925
▁commitment	-4926
▁equivalent	-4927
▁resistance	-4928
▁anticipated	-4929
▁commodities	-4930
▁enterprises	-4931
▁sophisticated	-4932
90	-4933
vo	-4934
mas	-4935
ilvy	-4936
umst	-4937
what	-4938
▁hom	-4939
▁ten	-4940
ables	-4941
ampsh	-4942
vania	-4943
▁dist	-4944
▁marc	-4945
aphics	-4946
theast	-4947
▁alleg	-4948
▁beach	-4949
▁foods	-4950
▁subse	-4951
ossible	-4952
▁academ	-4953
▁answer	-4954
▁delays	-4955
▁fellow	-4956
▁gather	-4957
▁hampsh	-4958
▁hooker	-4959
▁merely	-4960
▁ogilvy	-4961
▁pulled	-4962
▁stabil	-4963
▁steady	-4964
▁stress	-4965
▁turner	-4966
▁weaker	-4967
▁window	-4968
sylvania	-4969
▁caution	-4970
▁founder	-4971
▁install	-4972
▁targets	-4973
echnology	-4974
umstances	-4975
▁becoming	-4976
▁exposure	-4977
▁formerly	-4978
▁graphics	-4979
▁numerous	-4980
▁revenues	-4981
▁somewhat	-4982
▁affiliate	-4983
▁christmas	-4984
▁divisions	-4985
▁hampshire	-4986
▁neighborh	-4987
▁northeast	-4988
▁supported	-4989
▁attractive	-4990
▁impossible	-4991
▁portfolios	-4992
▁statements	-4993
▁threatened	-4994
▁allegations	-4995
▁pennsylvania	-4996
▁circumstances	-4997
▁disappointing	-4998
cs	-4999
bac	-5000
ene	-5001
iro	-5002
ita	-5003
tch	-5004
acom	-5005
erry	-5006
erts	-5007
iffs	-5008
loss	-5009
sych	-5010
▁dun	-5011
▁fla	-5012
▁gal	-5013
▁luf	-5014
▁riv	-5015
▁ton	-5016
acing	-5017
ansas	-5018
aring	-5019
bacco	-5020
ellor	-5021
erald	-5022
idesp	-5023
▁eval	-5024
▁iran	-5025
▁issu	-5026
▁nich	-5027
▁pool	-5028
▁rico	-5029
▁rush	-5030
▁site	-5031
▁thin	-5032
atever	-5033
▁catch	-5034
▁conse	-5035
▁genes	-5036
▁guard	-5037
▁ordin	-5038
▁psych	-5039
▁skept	-5040
▁turns	-5041
▁video	-5042
▁brooks	-5043
▁korean	-5044
▁orange	-5045
▁rivals	-5046
▁seeing	-5047
▁status	-5048
▁widesp	-5049
▁collect	-5050
▁maximum	-5051
▁plastic	-5052
▁reading	-5053
▁recalls	-5054
▁stretch	-5055
▁tobacco	-5056
▁variety	-5057
▁warning	-5058
▁witness	-5059
▁changing	-5060
▁retailer	-5061
▁strongly	-5062
▁whatever	-5063
▁regarding	-5064
▁secondary	-5065
▁subsidies	-5066
▁surprised	-5067
▁chancellor	-5068
▁frequently	-5069
▁widespread	-5070
▁commissions	-5071
▁consolidated	-5072
▁contributions	-5073
aiw	-5074
exp	-5075
gas	-5076
kei	-5077
kel	-5078
uce	-5079
yed	-5080
abor	-5081
ario	-5082
more	-5083
room	-5084
▁hor	-5085
▁son	-5086
▁tap	-5087
abody	-5088
aiwan	-5089
aught	-5090
eller	-5091
esale	-5092
ilipp	-5093
stein	-5094
▁arab	-5095
▁beer	-5096
▁cath	-5097
▁feed	-5098
▁impl	-5099
▁meth	-5100
▁nyse	-5101
▁rent	-5102
▁slid	-5103
▁wear	-5104
apital	-5105
illing	-5106
thirds	-5107
▁blame	-5108
▁blood	-5109
▁delta	-5110
▁eager	-5111
▁fleet	-5112
▁surpl	-5113
▁tower	-5114
aborate	-5115
ression	-5116
tenance	-5117
▁closer	-5118
▁dealer	-5119
▁filled	-5120
▁memory	-5121
▁nikkei	-5122
▁retain	-5123
▁taiwan	-5124
▁theory	-5125
▁walter	-5126
expected	-5127
▁airways	-5128
▁automob	-5129
▁becomes	-5130
▁breeden	-5131
▁carries	-5132
▁claimed	-5133
▁disrupt	-5134
▁exactly	-5135
▁illustr	-5136
▁maxwell	-5137
▁peabody	-5138
▁philipp	-5139
▁sellers	-5140
insurance	-5141
▁billions	-5142
▁concentr	-5143
▁fighting	-5144
▁handling	-5145
▁promised	-5146
▁unemploy	-5147
▁watching	-5148
▁appointed	-5149
▁elaborate	-5150
▁eliminate	-5151
▁employers	-5152
▁interpret	-5153
▁published	-5154
▁wholesale	-5155
▁complained	-5156
▁foundation	-5157
▁photograph	-5158
▁educational	-5159
▁fundamental	-5160
▁maintenance	-5161
▁unemployment	-5162
▁profitability	-5163
aid	-5164
▁vs	-5165
bing	-5166
cies	-5167
item	-5168
tech	-5169
ucky	-5170
wers	-5171
ynam	-5172
▁bob	-5173
▁dai	-5174
▁gop	-5175
▁rtc	-5176
ander	-5177
third	-5178
▁insp	-5179
▁seed	-5180
▁tape	-5181
▁wish	-5182
action	-5183
derick	-5184
ecured	-5185
minent	-5186
timore	-5187
▁abort	-5188
▁banco	-5189
▁behav	-5190
▁dynam	-5191
▁fresh	-5192
▁pilot	-5193
▁slash	-5194
ionally	-5195
urchase	-5196
▁formal	-5197
▁harris	-5198
▁messrs	-5199
▁player	-5200
▁quebec	-5201
▁viewed	-5202
▁weight	-5203
▁winter	-5204
▁worker	-5205
ological	-5206
▁causing	-5207
▁channel	-5208
▁genetic	-5209
▁message	-5210
▁viewers	-5211
▁downturn	-5212
▁merchant	-5213
▁subscrib	-5214
▁baltimore	-5215
▁consensus	-5216
▁determine	-5217
▁developer	-5218
▁encourage	-5219
▁indicates	-5220
▁promotion	-5221
▁unsecured	-5222
▁currencies	-5223
▁reputation	-5224
▁violations	-5225
▁applications	-5226
▁organizations	-5227
mp	-5228
ada	-5229
has	-5230
oen	-5231
▁om	-5232
etts	-5233
odak	-5234
▁deg	-5235
▁gar	-5236
▁mad	-5237
▁wel	-5238
achus	-5239
ecker	-5240
inois	-5241
lands	-5242
▁anim	-5243
▁hunt	-5244
▁race	-5245
▁rand	-5246
▁seat	-5247
▁swap	-5248
▁swed	-5249
▁wave	-5250
dollar	-5251
▁apply	-5252
▁cells	-5253
▁crack	-5254
▁enact	-5255
▁kodak	-5256
▁mason	-5257
▁occas	-5258
▁shops	-5259
▁table	-5260
ultural	-5261
viation	-5262
▁broken	-5263
▁daniel	-5264
▁emphas	-5265
▁looked	-5266
▁noting	-5267
▁prohib	-5268
▁unfair	-5269
▁besides	-5270
▁brewing	-5271
▁consent	-5272
▁delayed	-5273
▁doubled	-5274
▁english	-5275
▁insurer	-5276
▁retired	-5277
▁stadium	-5278
achusetts	-5279
▁covering	-5280
▁deterior	-5281
▁honecker	-5282
▁illinois	-5283
▁plastics	-5284
▁recorded	-5285
▁bellsouth	-5286
▁borrowing	-5287
▁machinery	-5288
▁operators	-5289
▁plummeted	-5290
▁sustained	-5291
▁developers	-5292
▁identified	-5293
▁incentives	-5294
▁reasonable	-5295
▁effectively	-5296
▁represented	-5297
▁massachusetts	-5298
nb	-5299
ui	-5300
bus	-5301
dom	-5302
ipp	-5303
ray	-5304
ugg	-5305
cial	-5306
ican	-5307
mons	-5308
rene	-5309
ught	-5310
week	-5311
▁box	-5312
▁fly	-5313
▁hed	-5314
▁ken	-5315
▁lag	-5316
izing	-5317
uster	-5318
▁aide	-5319
▁bloc	-5320
▁brad	-5321
▁conc	-5322
▁cool	-5323
▁duty	-5324
▁rede	-5325
▁stra	-5326
▁trem	-5327
uggish	-5328
▁accel	-5329
▁broke	-5330
▁consp	-5331
▁donal	-5332
▁ought	-5333
▁pitch	-5334
▁risen	-5335
▁sweep	-5336
reprene	-5337
trading	-5338
▁arrest	-5339
▁begins	-5340
▁desire	-5341
▁papers	-5342
▁prepar	-5343
▁writer	-5344
▁african	-5345
▁chamber	-5346
▁compete	-5347
▁confirm	-5348
▁correct	-5349
▁crucial	-5350
▁demands	-5351
▁display	-5352
▁explain	-5353
▁keating	-5354
▁purpose	-5355
▁simmons	-5356
▁storage	-5357
▁thomson	-5358
▁victory	-5359
▁analysis	-5360
▁generate	-5361
▁sluggish	-5362
▁standing	-5363
▁virginia	-5364
▁donaldson	-5365
▁introduce	-5366
▁sensitive	-5367
▁connection	-5368
▁entreprene	-5369
▁nationwide	-5370
▁procedures	-5371
▁combination	-5372
▁consumption	-5373
▁enforcement	-5374
▁5	-5375
ibe	-5376
usb	-5377
▁kr	-5378
▁nc	-5379
bell	-5380
ipts	-5381
roit	-5382
▁anx	-5383
▁cab	-5384
▁ray	-5385
▁rid	-5386
▁sex	-5387
▁unw	-5388
osing	-5389
▁bart	-5390
▁dial	-5391
▁husb	-5392
▁mand	-5393
▁page	-5394
▁trim	-5395
▁unve	-5396
▁aware	-5397
▁charl	-5398
▁cycle	-5399
▁forms	-5400
▁lease	-5401
▁lilly	-5402
▁round	-5403
▁touch	-5404
▁places	-5405
▁stable	-5406
▁stands	-5407
▁wright	-5408
▁broader	-5409
▁dealing	-5410
▁detroit	-5411
▁divided	-5412
▁husband	-5413
▁redempt	-5414
▁renewed	-5415
▁yeargin	-5416
▁campbell	-5417
▁carrying	-5418
▁location	-5419
▁occurred	-5420
▁officers	-5421
▁priority	-5422
▁replaced	-5423
▁schedule	-5424
▁surprise	-5425
▁totaling	-5426
▁economics	-5427
▁engineers	-5428
▁nicaragua	-5429
▁packaging	-5430
▁syndicate	-5431
▁encouraged	-5432
▁supporters	-5433
▁agriculture	-5434
▁appropriate	-5435
▁arrangement	-5436
▁essentially	-5437
▁legislative	-5438
▁considerable	-5439
▁developments	-5440
▁subsidiaries	-5441
aco	-5442
acr	-5443
etn	-5444
ura	-5445
▁gh	-5446
▁vo	-5447
arks	-5448
heim	-5449
hour	-5450
itsu	-5451
ixon	-5452
thur	-5453
▁han	-5454
etnam	-5455
ipped	-5456
issue	-5457
rical	-5458
wards	-5459
▁arms	-5460
▁kent	-5461
▁magn	-5462
▁mist	-5463
▁opec	-5464
▁prev	-5465
▁pulp	-5466
▁sacr	-5467
▁send	-5468
asters	-5469
astrop	-5470
▁advoc	-5471
▁confl	-5472
▁ghost	-5473
▁guide	-5474
▁knock	-5475
▁nixon	-5476
▁oblig	-5477
▁shock	-5478
▁steep	-5479
▁afford	-5480
▁arthur	-5481
▁attend	-5482
▁behalf	-5483
▁gamble	-5484
▁killed	-5485
▁leaves	-5486
▁slower	-5487
▁trends	-5488
▁viacom	-5489
▁benefic	-5490
▁filings	-5491
▁fujitsu	-5492
▁handful	-5493
▁hanover	-5494
▁intense	-5495
▁loyalty	-5496
▁ranging	-5497
▁remarks	-5498
▁secured	-5499
▁testing	-5500
▁vietnam	-5501
▁warrant	-5502
▁achieved	-5503
▁assuming	-5504
▁deadline	-5505
▁entirely	-5506
▁features	-5507
▁governor	-5508
▁planners	-5509
▁purposes	-5510
▁thompson	-5511
▁turnover	-5512
▁unfortun	-5513
▁catastrop	-5514
▁delivered	-5515
▁exclusive	-5516
▁favorable	-5517
▁overnight	-5518
▁principle	-5519
▁successor	-5520
▁complaints	-5521
▁criticized	-5522
▁registered	-5523
▁regulation	-5524
▁credibility	-5525
▁financially	-5526
▁programming	-5527
▁projections	-5528
▁restaurants	-5529
▁constitution	-5530
▁difficulties	-5531
kr	-5532
ny	-5533
-19	-5534
crs	-5535
pro	-5536
reh	-5537
xim	-5538
ybe	-5539
ivan	-5540
larg	-5541
▁alt	-5542
▁bor	-5543
▁dil	-5544
▁dip	-5545
▁egg	-5546
▁ele	-5547
▁kkr	-5548
▁ltv	-5549
▁mci	-5550
emper	-5551
enter	-5552
▁body	-5553
▁dell	-5554
▁fans	-5555
▁pont	-5556
▁surf	-5557
▁wcrs	-5558
antile	-5559
ateral	-5560
veland	-5561
▁asian	-5562
▁datap	-5563
▁goals	-5564
▁hoped	-5565
▁mills	-5566
▁persu	-5567
▁roman	-5568
▁scale	-5569
▁schem	-5570
▁soybe	-5571
▁wheat	-5572
largest	-5573
▁albert	-5574
▁barney	-5575
▁blamed	-5576
▁device	-5577
▁expire	-5578
▁knight	-5579
▁marine	-5580
▁planes	-5581
▁stream	-5582
ximately	-5583
▁achieve	-5584
▁compreh	-5585
▁driving	-5586
▁edition	-5587
▁evening	-5588
▁feeling	-5589
▁forward	-5590
▁payable	-5591
▁readers	-5592
▁rothsch	-5593
▁senator	-5594
▁setback	-5595
▁spirits	-5596
▁theater	-5597
▁argument	-5598
▁constant	-5599
▁downward	-5600
▁leverage	-5601
▁precious	-5602
▁suddenly	-5603
▁abandoned	-5604
▁accounted	-5605
▁cleveland	-5606
▁competing	-5607
▁defensive	-5608
▁pressures	-5609
▁recovered	-5610
▁reluctant	-5611
▁requiring	-5612
▁attempting	-5613
▁collateral	-5614
▁containers	-5615
▁indication	-5616
▁indicators	-5617
▁mercantile	-5618
▁revolution	-5619
▁comfortable	-5620
▁marketplace	-5621
▁speculators	-5622
▁compensation	-5623
▁approximately	-5624
▁comprehensive	-5625
gn	-5626
hi	-5627
hl	-5628
ati	-5629
elk	-5630
esa	-5631
iba	-5632
ker	-5633
ote	-5634
oul	-5635
ram	-5636
see	-5637
ulk	-5638
▁ru	-5639
ardt	-5640
east	-5641
enty	-5642
osen	-5643
redu	-5644
tega	-5645
tery	-5646
▁bow	-5647
▁enh	-5648
▁esc	-5649
▁nam	-5650
▁ted	-5651
▁tre	-5652
▁wat	-5653
elken	-5654
hardt	-5655
inner	-5656
ously	-5657
right	-5658
▁bron	-5659
▁bulk	-5660
▁cinc	-5661
▁desk	-5662
▁hart	-5663
▁hits	-5664
▁inch	-5665
▁mesa	-5666
▁schw	-5667
▁wood	-5668
cedent	-5669
innati	-5670
metics	-5671
perial	-5672
▁adopt	-5673
▁allen	-5674
▁dutch	-5675
▁pregn	-5676
▁scram	-5677
▁acting	-5678
▁advers	-5679
▁barely	-5680
▁berlin	-5681
▁delmed	-5682
▁depend	-5683
▁explos	-5684
▁hoping	-5685
▁island	-5686
▁linked	-5687
▁ortega	-5688
▁plenty	-5689
▁regime	-5690
▁starts	-5691
▁wealth	-5692
▁witter	-5693
▁charter	-5694
▁classes	-5695
▁holiday	-5696
▁italian	-5697
▁liberal	-5698
▁mergers	-5699
▁newport	-5700
▁science	-5701
reduction	-5702
▁dramatic	-5703
▁engelken	-5704
▁imperial	-5705
▁medicine	-5706
▁packages	-5707
▁remember	-5708
▁abortions	-5709
▁architect	-5710
▁cosmetics	-5711
▁departure	-5712
▁cincinnati	-5713
▁definitive	-5714
▁negotiated	-5715
▁optimistic	-5716
▁steinhardt	-5717
▁suspension	-5718
▁unexpected	-5719
▁experienced	-5720
▁reinsurance	-5721
▁acknowledged	-5722
▁representative	-5723
bu	-5724
do	-5725
pc	-5726
aut	-5727
onz	-5728
uth	-5729
vin	-5730
▁ko	-5731
alez	-5732
eman	-5733
enry	-5734
etna	-5735
icut	-5736
lium	-5737
uted	-5738
▁boy	-5739
▁eld	-5740
▁ica	-5741
▁jim	-5742
▁lau	-5743
ielvo	-5744
imony	-5745
oenix	-5746
opher	-5747
venue	-5748
▁beth	-5749
▁biot	-5750
▁eggs	-5751
▁fish	-5752
▁gonz	-5753
▁love	-5754
▁psyl	-5755
▁rank	-5756
▁ride	-5757
▁saab	-5758
▁text	-5759
▁wine	-5760
icated	-5761
▁adequ	-5762
▁aetna	-5763
▁corry	-5764
▁daiwa	-5765
▁eased	-5766
▁falls	-5767
▁henry	-5768
▁icahn	-5769
▁latin	-5770
▁leads	-5771
▁learn	-5772
▁occur	-5773
▁shape	-5774
▁speak	-5775
▁stick	-5776
▁stood	-5777
▁strip	-5778
▁trail	-5779
efeller	-5780
▁allies	-5781
▁avenue	-5782
▁capped	-5783
▁casual	-5784
▁column	-5785
▁denver	-5786
▁edison	-5787
▁grants	-5788
▁halted	-5789
▁hardly	-5790
▁holder	-5791
▁manage	-5792
▁mature	-5793
▁multip	-5794
▁oppose	-5795
▁plaint	-5796
▁screen	-5797
▁timing	-5798
▁toyota	-5799
▁treaty	-5800
ielvogel	-5801
inghouse	-5802
▁backing	-5803
▁cheaper	-5804
▁contend	-5805
▁discour	-5806
▁engaged	-5807
▁license	-5808
▁phoenix	-5809
▁promote	-5810
▁surplus	-5811
▁watched	-5812
▁weapons	-5813
▁writing	-5814
abilities	-5815
▁attitude	-5816
▁canceled	-5817
▁gonzalez	-5818
▁imported	-5819
▁learning	-5820
▁premiums	-5821
▁psyllium	-5822
▁relative	-5823
▁selected	-5824
▁activists	-5825
▁coalition	-5826
▁convicted	-5827
▁mainframe	-5828
▁obviously	-5829
▁responded	-5830
▁testimony	-5831
▁assumption	-5832
▁discussing	-5833
▁spielvogel	-5834
▁christopher	-5835
▁connecticut	-5836
▁rockefeller	-5837
▁westinghouse	-5838
▁biotechnology	-5839
hm	-5840
ov	-5841
▁x	-5842
enz	-5843
lor	-5844
tle	-5845
ades	-5846
ador	-5847
best	-5848
cola	-5849
cons	-5850
igan	-5851
iger	-5852
izes	-5853
stre	-5854
▁jon	-5855
▁jur	-5856
▁lex	-5857
▁mis	-5858
▁ral	-5859
▁row	-5860
erica	-5861
inter	-5862
▁acts	-5863
▁boes	-5864
▁coca	-5865
▁drag	-5866
▁ends	-5867
▁judg	-5868
▁kids	-5869
▁mont	-5870
▁nasa	-5871
▁odds	-5872
▁proc	-5873
▁rape	-5874
▁reop	-5875
▁sons	-5876
▁stol	-5877
▁wolf	-5878
around	-5879
bestos	-5880
egraph	-5881
itable	-5882
▁ideas	-5883
▁minne	-5884
▁postp	-5885
▁remic	-5886
▁shall	-5887
▁ships	-5888
▁spark	-5889
▁subur	-5890
▁causes	-5891
▁deaths	-5892
▁destro	-5893
▁lufkin	-5894
▁pieces	-5895
▁pounds	-5896
▁redeem	-5897
▁remove	-5898
▁robust	-5899
▁suffer	-5900
▁terror	-5901
▁transl	-5902
▁triple	-5903
▁unions	-5904
▁warren	-5905
▁answers	-5906
▁bargain	-5907
▁consequ	-5908
▁credits	-5909
▁decades	-5910
▁germans	-5911
▁hundred	-5912
▁manages	-5913
▁telling	-5914
▁asbestos	-5915
▁behavior	-5916
▁category	-5917
▁charging	-5918
▁creative	-5919
▁mcdonald	-5920
▁michigan	-5921
▁promises	-5922
▁thinking	-5923
▁associate	-5924
▁candidate	-5925
▁conducted	-5926
▁interbank	-5927
▁opponents	-5928
▁presented	-5929
▁recapital	-5930
▁telegraph	-5931
▁authorized	-5932
▁comparison	-5933
▁indicating	-5934
▁originally	-5935
▁permission	-5936
▁turnaround	-5937
▁distributed	-5938
▁minneapolis	-5939
▁potentially	-5940
▁aggressively	-5941
▁appreciation	-5942
▁conservatives	-5943
tv	-5944
▁2	-5945
era	-5946
oma	-5947
wis	-5948
▁az	-5949
aska	-5950
erve	-5951
fect	-5952
free	-5953
fund	-5954
gate	-5955
ianz	-5956
ichi	-5957
ileo	-5958
nedy	-5959
nell	-5960
rete	-5961
risk	-5962
ruck	-5963
▁cra	-5964
▁dur	-5965
▁okl	-5966
▁ore	-5967
▁rey	-5968
▁unc	-5969
▁web	-5970
imate	-5971
inson	-5972
uries	-5973
uters	-5974
verty	-5975
▁1990	-5976
▁busy	-5977
▁coke	-5978
▁diam	-5979
▁drew	-5980
▁gary	-5981
▁gray	-5982
▁ncnb	-5983
▁onto	-5984
▁owed	-5985
▁rack	-5986
▁span	-5987
▁terr	-5988
▁vary	-5989
amount	-5990
rounds	-5991
▁audit	-5992
▁brain	-5993
▁cards	-5994
▁champ	-5995
▁disag	-5996
▁lewis	-5997
▁maine	-5998
▁merge	-5999
▁roger	-6000
▁sheet	-6001
▁shell	-6002
▁teams	-6003
▁argues	-6004
▁duties	-6005
▁easing	-6006
▁famous	-6007
▁flying	-6008
▁proved	-6009
▁resort	-6010
▁revive	-6011
▁struck	-6012
▁upward	-6013
▁volunt	-6014
▁whites	-6015
▁allianz	-6016
▁colgate	-6017
▁founded	-6018
▁galileo	-6019
▁handled	-6020
▁happens	-6021
▁insider	-6022
▁kennedy	-6023
▁meaning	-6024
▁perfect	-6025
▁poverty	-6026
▁rallied	-6027
▁resolve	-6028
▁totally	-6029
▁weather	-6030
▁webster	-6031
▁younger	-6032
▁borrowed	-6033
▁clearing	-6034
▁compares	-6035
▁compound	-6036
▁concrete	-6037
▁dealings	-6038
▁exceeded	-6039
▁scenario	-6040
▁teachers	-6041
▁districts	-6042
▁paintings	-6043
▁paramount	-6044
▁rebounded	-6045
▁succeeded	-6046
▁disclosure	-6047
▁mainframes	-6048
▁succeeding	-6049
▁experiments	-6050
▁recognition	-6051
▁recommended	-6052
▁subscribers	-6053
▁tentatively	-6054
▁underwriter	-6055
▁improvements	-6056
▁productivity	-6057
▁participation	-6058
ih	-6059
yr	-6060
cri	-6061
eal	-6062
hus	-6063
izz	-6064
key	-6065
kzo	-6066
law	-6067
top	-6068
ubs	-6069
amer	-6070
colm	-6071
held	-6072
husi	-6073
iani	-6074
iced	-6075
loan	-6076
nost	-6077
ores	-6078
▁cel	-6079
▁cot	-6080
▁fat	-6081
▁fda	-6082
▁fee	-6083
▁fol	-6084
▁gyr	-6085
▁iii	-6086
▁jet	-6087
▁pow	-6088
▁raw	-6089
ached	-6090
▁300-	-6091
▁akzo	-6092
▁alum	-6093
▁gill	-6094
▁giul	-6095
▁hond	-6096
▁jail	-6097
▁lung	-6098
▁qual	-6099
▁sued	-6100
▁zeal	-6101
ington	-6102
ksamer	-6103
▁coors	-6104
▁deleg	-6105
▁happy	-6106
▁helps	-6107
▁minim	-6108
▁mobil	-6109
▁plays	-6110
▁refun	-6111
▁repay	-6112
▁vegas	-6113
▁allows	-6114
▁bitter	-6115
▁burden	-6116
▁choose	-6117
▁cotton	-6118
▁frustr	-6119
▁howard	-6120
▁permit	-6121
▁pilson	-6122
▁poison	-6123
▁powers	-6124
▁raises	-6125
▁scores	-6126
▁stakes	-6127
▁urging	-6128
▁anybody	-6129
▁bidders	-6130
▁climate	-6131
▁contest	-6132
▁enthusi	-6133
▁gillett	-6134
▁harvard	-6135
▁imposed	-6136
▁inquiry	-6137
▁joining	-6138
▁malcolm	-6139
▁outcome	-6140
▁percept	-6141
▁squeeze	-6142
▁stevens	-6143
▁veteran	-6144
▁winning	-6145
▁zealand	-6146
▁aluminum	-6147
▁attached	-6148
▁aviation	-6149
▁breakers	-6150
▁breaking	-6151
▁detailed	-6152
▁drilling	-6153
▁dropping	-6154
▁giuliani	-6155
▁homeless	-6156
▁realized	-6157
▁supplier	-6158
▁versions	-6159
management	-6160
▁donations	-6161
▁factories	-6162
▁gyrations	-6163
▁merksamer	-6164
▁organized	-6165
▁permitted	-6166
▁pollution	-6167
▁referring	-6168
▁stability	-6169
▁submitted	-6170
▁calculated	-6171
▁instrument	-6172
▁supporting	-6173
▁concentrate	-6174
▁controversy	-6175
▁residential	-6176
▁disappointed	-6177
▁surprisingly	-6178
▁consideration	-6179
▁professionals	-6180
bi	-6181
edy	-6182
owa	-6183
▁id	-6184
acob	-6185
arel	-6186
ilae	-6187
mbol	-6188
onds	-6189
user	-6190
vant	-6191
▁ath	-6192
▁cia	-6193
▁clo	-6194
▁fbi	-6195
▁gov	-6196
▁tar	-6197
adily	-6198
aysia	-6199
ecess	-6200
icial	-6201
icken	-6202
ledge	-6203
scale	-6204
▁blow	-6205
▁carp	-6206
▁eyes	-6207
▁fled	-6208
▁hahn	-6209
▁harm	-6210
▁iowa	-6211
▁knew	-6212
▁milk	-6213
▁oust	-6214
▁plat	-6215
▁pump	-6216
▁reve	-6217
▁rowe	-6218
▁tiny	-6219
▁tone	-6220
arrass	-6221
contin	-6222
income	-6223
uccess	-6224
utions	-6225
wealth	-6226
▁fired	-6227
▁jacob	-6228
▁label	-6229
▁mines	-6230
▁rural	-6231
▁stone	-6232
▁stuff	-6233
▁sweet	-6234
▁troop	-6235
▁weigh	-6236
perform	-6237
▁copies	-6238
▁expend	-6239
▁murder	-6240
▁nomura	-6241
▁noneth	-6242
▁polish	-6243
▁stated	-6244
▁symbol	-6245
▁texaco	-6246
▁waerts	-6247
▁apparel	-6248
▁chicken	-6249
▁classic	-6250
▁disease	-6251
▁leasing	-6252
▁midwest	-6253
▁pointed	-6254
continued	-6255
▁barriers	-6256
▁dynamics	-6257
▁explains	-6258
▁greatest	-6259
▁judicial	-6260
▁longtime	-6261
▁malaysia	-6262
▁memories	-6263
▁modestly	-6264
▁receipts	-6265
▁refinery	-6266
▁resolved	-6267
▁sciences	-6268
▁segments	-6269
▁steadily	-6270
▁depending	-6271
▁depressed	-6272
▁discussed	-6273
▁dismissed	-6274
▁embarrass	-6275
▁hospitals	-6276
▁knowledge	-6277
▁penalties	-6278
▁projected	-6279
▁requested	-6280
▁socialist	-6281
▁technique	-6282
▁unsuccess	-6283
▁automobile	-6284
▁completely	-6285
▁contractor	-6286
▁electrical	-6287
▁importance	-6288
▁reductions	-6289
▁subsequent	-6290
▁waertsilae	-6291
▁withdrawal	-6292
▁departments	-6293
▁electricity	-6294
▁legislators	-6295
▁nonetheless	-6296
▁steelmakers	-6297
▁anticipation	-6298
▁commonwealth	-6299
▁discontinued	-6300
aby	-6301
aum	-6302
cue	-6303
fty	-6304
hen	-6305
ofl	-6306
ole	-6307
oon	-6308
rey	-6309
ula	-6310
▁13	-6311
aken	-6312
dale	-6313
ecks	-6314
exch	-6315
ians	-6316
umul	-6317
vine	-6318
▁bir	-6319
▁dar	-6320
▁eat	-6321
▁era	-6322
▁fox	-6323
▁jen	-6324
▁shr	-6325
▁yes	-6326
andhi	-6327
ector	-6328
empts	-6329
ennis	-6330
erton	-6331
essee	-6332
idman	-6333
nival	-6334
puter	-6335
rette	-6336
verly	-6337
▁baby	-6338
▁curb	-6339
▁deny	-6340
▁edge	-6341
▁hire	-6342
▁kenn	-6343
▁lies	-6344
▁load	-6345
▁mips	-6346
▁obst	-6347
▁pays	-6348
▁pill	-6349
▁pink	-6350
▁rare	-6351
▁seag	-6352
▁vast	-6353
▁wash	-6354
ighter	-6355
letter	-6356
ortium	-6357
▁absor	-6358
▁analy	-6359
▁bikes	-6360
▁catal	-6361
▁cohen	-6362
▁debts	-6363
▁dream	-6364
▁false	-6365
▁hefty	-6366
▁jewel	-6367
▁lists	-6368
▁mcdon	-6369
▁polls	-6370
▁probe	-6371
▁steve	-6372
▁tells	-6373
▁tools	-6374
▁train	-6375
itation	-6376
▁artist	-6377
▁checks	-6378
▁conven	-6379
▁darman	-6380
▁degree	-6381
▁dennis	-6382
▁farmer	-6383
▁finish	-6384
▁gandhi	-6385
▁justin	-6386
▁marcos	-6387
▁master	-6388
▁notice	-6389
▁rescue	-6390
▁ronald	-6391
▁slowed	-6392
chemical	-6393
computer	-6394
exchange	-6395
▁advised	-6396
▁assumed	-6397
▁balloon	-6398
▁beverly	-6399
▁bolster	-6400
▁contras	-6401
▁focused	-6402
▁freeway	-6403
▁greatly	-6404
▁jeffrey	-6405
▁kenneth	-6406
▁maynard	-6407
▁mission	-6408
▁outlets	-6409
▁penalty	-6410
▁seidman	-6411
▁sitting	-6412
▁streets	-6413
omingdale	-6414
▁articles	-6415
▁attempts	-6416
▁carnival	-6417
▁emerging	-6418
▁emphasis	-6419
▁favorite	-6420
▁insisted	-6421
▁jenrette	-6422
▁maryland	-6423
▁obtained	-6424
▁printing	-6425
▁reaching	-6426
▁requests	-6427
▁straight	-6428
▁visitors	-6429
▁alexander	-6430
▁arguments	-6431
▁attracted	-6432
▁expecting	-6433
▁extension	-6434
▁financier	-6435
▁pinkerton	-6436
▁receiving	-6437
▁tennessee	-6438
▁therefore	-6439
▁committees	-6440
▁consortium	-6441
▁eliminated	-6442
▁negotiable	-6443
▁newsletter	-6444
▁predicting	-6445
▁seasonally	-6446
▁stateswest	-6447
▁structures	-6448
▁businessmen	-6449
▁controlling	-6450
▁diversified	-6451
▁interesting	-6452
▁involvement	-6453
▁necessarily	-6454
▁participate	-6455
▁bloomingdale	-6456
▁presidential	-6457
▁publications	-6458
▁petrochemical	-6459
ara	-6460
hem	-6461
lom	-6462
ogg	-6463
▁pf	-6464
assy	-6465
card	-6466
coup	-6467
heed	-6468
here	-6469
iere	-6470
init	-6471
itol	-6472
lymp	-6473
uate	-6474
▁der	-6475
▁dor	-6476
▁dub	-6477
▁edt	-6478
▁mix	-6479
▁sle	-6480
banon	-6481
ilton	-6482
iment	-6483
lehem	-6484
using	-6485
▁amex	-6486
▁anth	-6487
▁boss	-6488
▁dedu	-6489
▁kell	-6490
▁kick	-6491
▁leap	-6492
▁lots	-6493
▁mart	-6494
▁plea	-6495
▁prol	-6496
▁reyn	-6497
▁rica	-6498
coupon	-6499
erated	-6500
igible	-6501
senate	-6502
▁acres	-6503
▁bases	-6504
▁boren	-6505
▁colom	-6506
▁expir	-6507
▁grace	-6508
▁harry	-6509
▁olymp	-6510
▁persp	-6511
▁plane	-6512
▁seoul	-6513
▁sport	-6514
▁walls	-6515
atories	-6516
essions	-6517
troller	-6518
▁boards	-6519
▁chosen	-6520
▁diplom	-6521
▁disney	-6522
▁gotten	-6523
▁quotas	-6524
▁rebels	-6525
▁specif	-6526
▁strict	-6527
atically	-6528
▁adverse	-6529
▁bullish	-6530
▁capitol	-6531
▁cleared	-6532
▁contact	-6533
▁corrupt	-6534
▁doctors	-6535
▁freight	-6536
▁insists	-6537
▁kellogg	-6538
▁lebanon	-6539
▁missing	-6540
▁prevail	-6541
▁quotron	-6542
▁reality	-6543
▁restore	-6544
▁smoking	-6545
▁studios	-6546
▁survive	-6547
▁academic	-6548
▁bartlett	-6549
▁equities	-6550
▁findings	-6551
▁franklin	-6552
▁hardware	-6553
▁lockheed	-6554
▁ordinary	-6555
▁reinvest	-6556
▁retained	-6557
▁reynolds	-6558
▁showtime	-6559
▁solution	-6560
▁studying	-6561
▁sweeping	-6562
▁allegedly	-6563
▁bethlehem	-6564
▁connaught	-6565
▁dangerous	-6566
▁economies	-6567
▁extensive	-6568
▁happening	-6569
▁improving	-6570
▁inventory	-6571
▁sanctions	-6572
▁sentiment	-6573
▁adjustable	-6574
▁annualized	-6575
▁difficulty	-6576
▁discipline	-6577
▁expiration	-6578
▁foreigners	-6579
▁indictment	-6580
▁maintained	-6581
▁officially	-6582
▁quotations	-6583
▁struggling	-6584
▁adjustments	-6585
▁comptroller	-6586
▁flexibility	-6587
▁legislature	-6588
▁perspective	-6589
▁restructure	-6590
▁laboratories	-6591
▁respectively	-6592
▁specifically	-6593
▁traditionally	-6594
▁pharmaceuticals	-6595
\*	-6596
np	-6597
tz	-6598
oms	-6599
borg	-6600
fred	-6601
gged	-6602
iles	-6603
iods	-6604
isys	-6605
oded	-6606
offs	-6607
olut	-6608
▁gnp	-6609
▁lar	-6610
▁lbo	-6611
▁len	-6612
▁mir	-6613
▁tay	-6614
▁vul	-6615
liers	-6616
oster	-6617
print	-6618
relle	-6619
white	-6620
▁190-	-6621
▁500-	-6622
▁fiat	-6623
▁seas	-6624
▁sher	-6625
acters	-6626
amento	-6627
ground	-6628
▁aides	-6629
▁cambr	-6630
▁delic	-6631
▁posts	-6632
▁recru	-6633
▁risky	-6634
▁scene	-6635
▁theme	-6636
▁upham	-6637
▁wages	-6638
america	-6639
conduct	-6640
nerable	-6641
olutely	-6642
▁anyway	-6643
▁backlo	-6644
▁casino	-6645
▁cathay	-6646
▁cattle	-6647
▁conner	-6648
▁covers	-6649
▁dumped	-6650
▁exempt	-6651
▁foster	-6652
▁intens	-6653
▁length	-6654
▁lowest	-6655
▁marked	-6656
▁medium	-6657
▁merged	-6658
▁notion	-6659
▁scheme	-6660
▁taylor	-6661
▁ticket	-6662
▁trelle	-6663
▁unisys	-6664
▁warsaw	-6665
▁aspects	-6666
▁contemp	-6667
▁courter	-6668
▁diluted	-6669
▁expires	-6670
▁failing	-6671
▁grounds	-6672
▁partial	-6673
▁periods	-6674
▁pleaded	-6675
▁sectors	-6676
▁worries	-6677
▁accident	-6678
▁casualty	-6679
▁downtown	-6680
▁injuries	-6681
▁seasonal	-6682
▁somebody	-6683
▁surveyed	-6684
▁advocates	-6685
▁charities	-6686
▁performed	-6687
▁preparing	-6688
▁seriously	-6689
▁specified	-6690
▁suppliers	-6691
▁absolutely	-6692
▁adjustment	-6693
▁characters	-6694
▁components	-6695
▁conviction	-6696
▁monitoring	-6697
▁plaintiffs	-6698
▁recognized	-6699
▁reportedly	-6700
▁repurchase	-6701
▁sacramento	-6702
▁strategist	-6703
▁trelleborg	-6704
▁vulnerable	-6705
▁bankamerica	-6706
▁indications	-6707
▁philippines	-6708
▁implications	-6709
▁partnerships	-6710
▁unfortunately	-6711
pe	-6712
ado	-6713
ece	-6714
liv	-6715
ode	-6716
rid	-6717
udi	-6718
unk	-6719
win	-6720
▁ps	-6721
augh	-6722
etti	-6723
glom	-6724
haul	-6725
hmer	-6726
iece	-6727
ieux	-6728
inds	-6729
less	-6730
mosp	-6731
olas	-6732
ooth	-6733
ouri	-6734
resp	-6735
umed	-6736
▁jay	-6737
▁lor	-6738
▁rac	-6739
▁usa	-6740
anced	-6741
athan	-6742
aware	-6743
etics	-6744
field	-6745
inced	-6746
iracy	-6747
ppers	-6748
ropro	-6749
water	-6750
▁clin	-6751
▁cycl	-6752
▁dict	-6753
▁diss	-6754
▁gall	-6755
▁guys	-6756
▁lane	-6757
▁lire	-6758
▁oliv	-6759
▁rain	-6760
▁shed	-6761
▁sole	-6762
▁sull	-6763
▁tact	-6764
▁wire	-6765
ellite	-6766
itious	-6767
luster	-6768
rights	-6769
▁abuse	-6770
▁alloc	-6771
▁barry	-6772
▁craig	-6773
▁daugh	-6774
▁defer	-6775
▁eagle	-6776
▁fined	-6777
▁kinds	-6778
▁lunch	-6779
▁ralph	-6780
▁saudi	-6781
▁storm	-6782
▁tiger	-6783
▁atmosp	-6784
▁belief	-6785
▁cooper	-6786
▁dispos	-6787
▁feared	-6788
▁funded	-6789
▁greece	-6790
▁hotels	-6791
▁impose	-6792
▁kansas	-6793
▁method	-6794
▁nearby	-6795
▁privat	-6796
▁racial	-6797
▁samuel	-6798
▁smooth	-6799
▁charity	-6800
▁conglom	-6801
▁depends	-6802
▁durable	-6803
▁killing	-6804
▁located	-6805
▁merieux	-6806
▁procter	-6807
▁stepped	-6808
▁taxable	-6809
roprocess	-6810
▁adequate	-6811
▁admitted	-6812
▁advisory	-6813
▁colorado	-6814
▁conceded	-6815
▁delaware	-6816
▁financed	-6817
▁focusing	-6818
▁measured	-6819
▁missouri	-6820
▁nicholas	-6821
▁olivetti	-6822
▁overhaul	-6823
▁produces	-6824
▁quebecor	-6825
▁railroad	-6826
▁signaled	-6827
▁sullivan	-6828
▁thousand	-6829
▁ambitious	-6830
▁apartment	-6831
▁automatic	-6832
▁confusion	-6833
▁converted	-6834
▁convinced	-6835
▁dominated	-6836
▁excessive	-6837
▁incentive	-6838
▁protected	-6839
▁satellite	-6840
▁similarly	-6841
▁southeast	-6842
▁terrorism	-6843
▁travelers	-6844
▁weakening	-6845
▁acceptance	-6846
▁approached	-6847
▁completion	-6848
▁conspiracy	-6849
▁lackluster	-6850
▁restricted	-6851
▁rothschild	-6852
▁appointment	-6853
▁discounting	-6854
▁liabilities	-6855
▁prospective	-6856
▁publication	-6857
▁conglomerate	-6858
▁considerably	-6859
▁consistently	-6860
▁microprocess	-6861
▁neighborhood	-6862
60	-6863
cut	-6864
ebr	-6865
fcs	-6866
gry	-6867
▁pu	-6868
aiss	-6869
aman	-6870
bors	-6871
erly	-6872
erto	-6873
gets	-6874
grow	-6875
oned	-6876
ship	-6877
▁12-	-6878
▁bag	-6879
▁dal	-6880
▁gau	-6881
▁les	-6882
▁odd	-6883
▁roy	-6884
▁und	-6885
▁unp	-6886
▁wpp	-6887
ahoma	-6888
apped	-6889
igned	-6890
uable	-6891
▁1960	-6892
▁asks	-6893
▁aver	-6894
▁cfcs	-6895
▁pour	-6896
▁tire	-6897
▁toll	-6898
ussels	-6899
▁angry	-6900
▁diego	-6901
▁draft	-6902
▁entry	-6903
▁facts	-6904
▁finds	-6905
▁globe	-6906
▁honda	-6907
▁irish	-6908
▁legit	-6909
▁loose	-6910
▁reset	-6911
▁shelf	-6912
▁youth	-6913
amanian	-6914
growing	-6915
▁admits	-6916
▁agrees	-6917
▁allied	-6918
▁celebr	-6919
▁crimes	-6920
▁danger	-6921
▁devast	-6922
▁dozens	-6923
▁empire	-6924
▁enable	-6925
▁fueled	-6926
▁kemper	-6927
▁milton	-6928
▁motion	-6929
▁nether	-6930
▁picked	-6931
▁puerto	-6932
▁random	-6933
▁skills	-6934
▁tracks	-6935
aissance	-6936
cessions	-6937
eteering	-6938
rounding	-6939
▁bearish	-6940
▁bonuses	-6941
▁budgets	-6942
▁cleanup	-6943
▁elderly	-6944
▁forcing	-6945
▁injured	-6946
▁mexican	-6947
▁pleased	-6948
▁raymond	-6949
▁reacted	-6950
▁ringers	-6951
▁rolling	-6952
▁rumored	-6953
▁serving	-6954
▁brussels	-6955
▁concedes	-6956
▁disagree	-6957
▁failures	-6958
▁formally	-6959
▁hastings	-6960
▁informed	-6961
▁kentucky	-6962
▁momentum	-6963
▁oklahoma	-6964
▁persuade	-6965
▁reliance	-6966
▁staffers	-6967
▁supervis	-6968
▁targeted	-6969
▁ultimate	-6970
▁unveiled	-6971
▁valuable	-6972
▁violated	-6973
▁williams	-6974
▁basically	-6975
▁complaint	-6976
▁disasters	-6977
▁discounts	-6978
▁passenger	-6979
▁treasurys	-6980
▁affiliates	-6981
▁competitor	-6982
▁experiment	-6983
▁panamanian	-6984
▁prosecutor	-6985
▁repeatedly	-6986
▁complicated	-6987
▁concessions	-6988
▁contractors	-6989
▁encouraging	-6990
▁franchisees	-6991
▁netherlands	-6992
▁renaissance	-6993
▁replacement	-6994
▁respondents	-6995
▁surrounding	-6996
▁transferred	-6997
▁commissioner	-6998
▁consequences	-6999
▁dataproducts	-7000
▁racketeering	-7001
▁stockholders	-7002
▁investigating	-7003
uz	-7004
cur	-7005
how	-7006
ikh	-7007
itb	-7008
nov	-7009
tes	-7010
uge	-7011
uns	-7012
dict	-7013
idav	-7014
ippi	-7015
izer	-7016
lein	-7017
math	-7018
mont	-7019
soft	-7020
▁ark	-7021
▁cie	-7022
▁dod	-7023
▁dpc	-7024
▁fab	-7025
▁nab	-7026
▁nel	-7027
▁ram	-7028
aroid	-7029
idges	-7030
iking	-7031
istan	-7032
keley	-7033
onent	-7034
venth	-7035
▁bass	-7036
▁beef	-7037
▁born	-7038
▁boys	-7039
▁buys	-7040
▁capt	-7041
▁emot	-7042
▁epis	-7043
▁fare	-7044
▁flaw	-7045
▁leon	-7046
▁lone	-7047
▁mikh	-7048
▁moon	-7049
▁nice	-7050
▁pork	-7051
▁spur	-7052
▁warn	-7053
ectual	-7054
isters	-7055
taking	-7056
▁bates	-7057
▁climb	-7058
▁edged	-7059
▁evans	-7060
▁fargo	-7061
▁highs	-7062
▁ideal	-7063
▁injun	-7064
▁inner	-7065
▁innov	-7066
▁klein	-7067
▁lotus	-7068
▁moore	-7069
▁relie	-7070
▁solic	-7071
▁spill	-7072
▁tandy	-7073
▁upset	-7074
▁whitb	-7075
iciency	-7076
issippi	-7077
uations	-7078
▁assass	-7079
▁banned	-7080
▁combat	-7081
▁comedy	-7082
▁crunch	-7083
▁desper	-7084
▁doctor	-7085
▁driven	-7086
▁hiring	-7087
▁jewish	-7088
▁marina	-7089
▁nelson	-7090
▁owning	-7091
▁punish	-7092
▁refuge	-7093
▁reveal	-7094
▁routes	-7095
▁rubber	-7096
▁secure	-7097
▁seller	-7098
▁slowly	-7099
▁sounds	-7100
▁stance	-7101
▁tandem	-7102
▁turkey	-7103
▁workst	-7104
products	-7105
▁affidav	-7106
▁baskets	-7107
▁bridges	-7108
▁chevron	-7109
▁coordin	-7110
▁emerged	-7111
▁jackson	-7112
▁landing	-7113
▁massage	-7114
▁mikhail	-7115
▁missile	-7116
▁nabisco	-7117
▁privile	-7118
▁resorts	-7119
▁russian	-7120
▁screens	-7121
▁sending	-7122
▁societe	-7123
▁suspect	-7124
▁swedish	-7125
▁tougher	-7126
▁transpl	-7127
▁vermont	-7128
▁amounted	-7129
▁averaged	-7130
▁berkeley	-7131
▁boosting	-7132
▁claiming	-7133
▁compiled	-7134
▁creditor	-7135
▁employer	-7136
▁incident	-7137
▁incurred	-7138
▁instruct	-7139
▁judgment	-7140
▁lobbying	-7141
▁polaroid	-7142
▁predicts	-7143
▁protests	-7144
▁shortage	-7145
▁striking	-7146
▁struggle	-7147
▁tendered	-7148
▁tourists	-7149
▁aftermath	-7150
▁benefited	-7151
▁carefully	-7152
▁carpenter	-7153
▁contained	-7154
▁emotional	-7155
▁execution	-7156
▁explained	-7157
▁indicator	-7158
▁installed	-7159
▁mentioned	-7160
▁microsoft	-7161
▁ministers	-7162
▁negotiate	-7163
▁prominent	-7164
▁robertson	-7165
▁skeptical	-7166
▁violation	-7167
▁whitbread	-7168
▁assessment	-7169
▁catastroph	-7170
▁cigarettes	-7171
▁conversion	-7172
▁efficiency	-7173
▁injunction	-7174
▁laboratory	-7175
▁publishers	-7176
▁redemption	-7177
▁suggesting	-7178
▁application	-7179
▁mississippi	-7180
▁obligations	-7181
▁calculations	-7182
▁concentrated	-7183
▁entrepreneur	-7184
▁fundamentals	-7185
▁independence	-7186
▁intellectual	-7187
▁introduction	-7188
▁relationships	-7189
oa	-7190
yl	-7191
amm	-7192
atz	-7193
awa	-7194
eva	-7195
oco	-7196
rud	-7197
ucr	-7198
utr	-7199
cean	-7200
drew	-7201
eter	-7202
ghan	-7203
ghes	-7204
icop	-7205
igel	-7206
john	-7207
wart	-7208
▁fha	-7209
▁haz	-7210
▁imf	-7211
▁siz	-7212
▁tvs	-7213
echan	-7214
elled	-7215
encil	-7216
erted	-7217
ethyl	-7218
iegel	-7219
inist	-7220
oflot	-7221
othes	-7222
▁belg	-7223
▁bike	-7224
▁craz	-7225
▁dual	-7226
▁finn	-7227
▁idle	-7228
▁katz	-7229
▁lake	-7230
▁lion	-7231
▁lucr	-7232
▁male	-7233
▁palo	-7234
▁path	-7235
▁poly	-7236
▁rely	-7237
▁song	-7238
▁stun	-7239
▁user	-7240
ancing	-7241
itures	-7242
rudman	-7243
▁accur	-7244
▁amoco	-7245
▁anger	-7246
▁arrow	-7247
▁bally	-7248
▁beers	-7249
▁bruce	-7250
▁cocoa	-7251
▁exhib	-7252
▁films	-7253
▁gramm	-7254
▁horse	-7255
▁links	-7256
▁nigel	-7257
▁ocean	-7258
▁phase	-7259
▁quota	-7260
▁ranks	-7261
▁steal	-7262
▁stuck	-7263
▁swift	-7264
▁theat	-7265
▁unpre	-7266
anation	-7267
▁afghan	-7268
▁alaska	-7269
▁athlet	-7270
▁belong	-7271
▁boesky	-7272
▁breaks	-7273
▁carter	-7274
▁colony	-7275
▁counts	-7276
▁florio	-7277
▁geneva	-7278
▁gerald	-7279
▁hudson	-7280
▁hughes	-7281
▁incest	-7282
▁licens	-7283
▁mechan	-7284
▁minute	-7285
▁pencil	-7286
▁rarely	-7287
▁remark	-7288
▁salary	-7289
▁stolen	-7290
▁string	-7291
▁upjohn	-7292
▁useful	-7293
▁wilson	-7294
cedented	-7295
cription	-7296
ethylene	-7297
▁arguing	-7298
▁clothes	-7299
▁compare	-7300
▁engines	-7301
▁formula	-7302
▁indexes	-7303
▁justify	-7304
▁mercury	-7305
▁notably	-7306
▁planner	-7307
▁portray	-7308
▁reverse	-7309
▁shipped	-7310
▁sizable	-7311
▁spanish	-7312
▁speaker	-7313
▁spiegel	-7314
▁tourist	-7315
▁visited	-7316
ibilities	-7317
▁advances	-7318
▁aeroflot	-7319
▁attended	-7320
▁attribut	-7321
▁clothing	-7322
▁conflict	-7323
▁employed	-7324
▁floating	-7325
▁involves	-7326
▁jacobson	-7327
▁matching	-7328
▁maturing	-7329
▁painting	-7330
▁pursuing	-7331
▁suburban	-7332
▁weakened	-7333
▁withdrew	-7334
▁affecting	-7335
▁defendant	-7336
▁featuring	-7337
▁implement	-7338
▁lucrative	-7339
▁recognize	-7340
▁rejection	-7341
▁sandinist	-7342
▁solutions	-7343
▁unusually	-7344
▁compliance	-7345
▁convention	-7346
▁federation	-7347
▁healthvest	-7348
▁presidents	-7349
▁strengthen	-7350
▁bureaucracy	-7351
▁communities	-7352
▁eliminating	-7353
▁explanation	-7354
▁interviewed	-7355
▁operational	-7356
▁politically	-7357
▁refinancing	-7358
▁specialized	-7359
▁threatening	-7360
▁contribution	-7361
▁expenditures	-7362
▁polyethylene	-7363
▁unprecedented	-7364
-2	-7365
of	-7366
ars	-7367
ipe	-7368
isk	-7369
▁md	-7370
▁oz	-7371
boys	-7372
corp	-7373
emex	-7374
enda	-7375
gery	-7376
icam	-7377
mune	-7378
nett	-7379
omin	-7380
part	-7381
raid	-7382
urer	-7383
▁cow	-7384
▁fan	-7385
▁fet	-7386
▁log	-7387
▁nfl	-7388
▁tox	-7389
▁tva	-7390
edith	-7391
equer	-7392
erals	-7393
eries	-7394
inoff	-7395
irect	-7396
itage	-7397
rimin	-7398
sized	-7399
▁bias	-7400
▁boun	-7401
▁fuji	-7402
▁furn	-7403
▁hang	-7404
▁inev	-7405
▁mere	-7406
▁mood	-7407
▁offs	-7408
▁pled	-7409
▁rebu	-7410
▁roch	-7411
▁soup	-7412
▁tony	-7413
consin	-7414
encing	-7415
nesota	-7416
retion	-7417
ultane	-7418
▁altog	-7419
▁cargo	-7420
▁cubic	-7421
▁doors	-7422
▁drops	-7423
▁feels	-7424
▁glenn	-7425
▁guest	-7426
▁honor	-7427
▁jerry	-7428
▁lived	-7429
▁midst	-7430
▁milan	-7431
▁overr	-7432
▁ozone	-7433
▁pemex	-7434
▁roads	-7435
▁sites	-7436
▁sleep	-7437
▁truth	-7438
gersoll	-7439
quality	-7440
▁adults	-7441
▁afraid	-7442
▁agenda	-7443
▁backer	-7444
▁blocks	-7445
▁bright	-7446
▁denies	-7447
▁emerge	-7448
▁fortun	-7449
▁hispan	-7450
▁ignore	-7451
▁immune	-7452
▁intend	-7453
▁jurors	-7454
▁lately	-7455
▁lesson	-7456
▁ounces	-7457
▁postal	-7458
▁shrink	-7459
▁spirit	-7460
▁summit	-7461
▁surely	-7462
▁thanks	-7463
▁troops	-7464
▁unders	-7465
abortion	-7466
ightened	-7467
▁absence	-7468
▁anthony	-7469
▁attacks	-7470
▁broadly	-7471
▁brother	-7472
▁confron	-7473
▁content	-7474
▁cowboys	-7475
▁definit	-7476
▁diamond	-7477
▁drawing	-7478
▁edwards	-7479
▁employs	-7480
▁goodson	-7481
▁ignored	-7482
▁kingdom	-7483
▁permits	-7484
▁picking	-7485
▁prepare	-7486
▁removed	-7487
▁rubicam	-7488
▁shuttle	-7489
▁signals	-7490
▁specify	-7491
▁spinoff	-7492
▁studied	-7493
▁surface	-7494
▁surgery	-7495
▁tourism	-7496
▁visible	-7497
▁wedtech	-7498
▁windows	-7499
▁anywhere	-7500
▁creation	-7501
▁decrease	-7502
▁dominant	-7503
▁eligible	-7504
▁executed	-7505
▁heritage	-7506
▁indirect	-7507
▁licenses	-7508
▁meantime	-7509
▁meredith	-7510
▁overcome	-7511
▁properly	-7512
▁rational	-7513
▁referred	-7514
▁regarded	-7515
rimination	-7516
▁assurance	-7517
▁campaigns	-7518
▁cigarette	-7519
▁connected	-7520
▁exchequer	-7521
▁furniture	-7522
▁generated	-7523
▁ingersoll	-7524
▁minnesota	-7525
▁northwest	-7526
▁promoting	-7527
▁rochester	-7528
▁simultane	-7529
▁somewhere	-7530
▁southwest	-7531
▁transform	-7532
▁treasurer	-7533
▁wisconsin	-7534
▁witnesses	-7535
▁altogether	-7536
▁categories	-7537
▁challenges	-7538
▁concerning	-7539
▁contribute	-7540
▁discretion	-7541
▁explaining	-7542
▁louisville	-7543
▁offsetting	-7544
▁promotions	-7545
▁responding	-7546
▁bondholders	-7547
▁businessman	-7548
▁congressman	-7549
▁convenience	-7550
▁distributor	-7551
▁examination	-7552
▁arrangements	-7553
▁discrimination	-7554
▁recommendations	-7555
-3	-7556
50	-7557
gu	-7558
car	-7559
eer	-7560
gon	-7561
itu	-7562
ola	-7563
ows	-7564
▁fa	-7565
▁iv	-7566
▁rh	-7567
aves	-7568
fers	-7569
iers	-7570
igor	-7571
iner	-7572
izza	-7573
life	-7574
lled	-7575
real	-7576
serv	-7577
stig	-7578
▁cha	-7579
▁eli	-7580
▁fcc	-7581
▁gaf	-7582
▁gut	-7583
▁ice	-7584
▁jol	-7585
▁nev	-7586
▁rig	-7587
▁sus	-7588
agers	-7589
ansui	-7590
ician	-7591
rance	-7592
rolet	-7593
theid	-7594
useum	-7595
▁alto	-7596
▁apar	-7597
▁buff	-7598
▁cree	-7599
▁crew	-7600
▁dole	-7601
▁enem	-7602
▁golf	-7603
▁grid	-7604
▁guer	-7605
▁lows	-7606
▁pion	-7607
▁rice	-7608
▁sank	-7609
▁sick	-7610
▁spin	-7611
▁stam	-7612
▁toys	-7613
▁utah	-7614
▁ward	-7615
▁wary	-7616
▁yiel	-7617
choice	-7618
endous	-7619
enheim	-7620
eywell	-7621
render	-7622
street	-7623
▁alive	-7624
▁array	-7625
▁bonus	-7626
▁brick	-7627
▁bronx	-7628
▁chose	-7629
▁crush	-7630
▁cumul	-7631
▁della	-7632
▁dimin	-7633
▁drawn	-7634
▁liter	-7635
▁moral	-7636
▁pizza	-7637
▁seize	-7638
▁semel	-7639
▁sixth	-7640
▁tries	-7641
▁vigor	-7642
▁waves	-7643
control	-7644
▁ballot	-7645
▁border	-7646
▁doubts	-7647
▁ethics	-7648
▁female	-7649
▁femina	-7650
▁fusion	-7651
▁herald	-7652
▁lifted	-7653
▁museum	-7654
▁oregon	-7655
▁refund	-7656
▁refuse	-7657
▁rolled	-7658
▁sansui	-7659
▁serves	-7660
▁shared	-7661
▁stayed	-7662
▁talked	-7663
▁vision	-7664
business	-7665
enheimer	-7666
interest	-7667
services	-7668
▁amended	-7669
▁animals	-7670
▁arrived	-7671
▁chances	-7672
▁combine	-7673
▁command	-7674
▁creates	-7675
▁deliber	-7676
▁enacted	-7677
▁eurocom	-7678
▁expired	-7679
▁gardens	-7680
▁interim	-7681
▁letting	-7682
▁madison	-7683
▁matched	-7684
▁optical	-7685
▁pioneer	-7686
▁prestig	-7687
▁qualify	-7688
▁routine	-7689
▁strikes	-7690
▁teacher	-7691
▁upscale	-7692
▁violate	-7693
▁widened	-7694
▁winners	-7695
▁arranged	-7696
▁constitu	-7697
▁designer	-7698
▁displays	-7699
▁dorrance	-7700
▁goldberg	-7701
▁guerrill	-7702
▁ignoring	-7703
▁improper	-7704
▁montreal	-7705
▁motorola	-7706
▁narrowed	-7707
▁notified	-7708
▁operated	-7709
▁packaged	-7710
▁pregnant	-7711
▁preserve	-7712
▁refining	-7713
▁reporter	-7714
▁restated	-7715
▁restored	-7716
▁salaries	-7717
▁stamford	-7718
▁superior	-7719
▁switched	-7720
▁yielding	-7721
▁advancing	-7722
▁apartheid	-7723
▁chevrolet	-7724
▁computing	-7725
▁considers	-7726
▁frederick	-7727
▁functions	-7728
▁gathering	-7729
▁honeywell	-7730
▁illegally	-7731
▁locations	-7732
▁marketers	-7733
▁mortality	-7734
▁publicity	-7735
▁regularly	-7736
▁regulator	-7737
▁strongest	-7738
▁suffering	-7739
▁surrender	-7740
▁announcing	-7741
▁bradstreet	-7742
▁cumulative	-7743
▁definition	-7744
▁depositary	-7745
▁depression	-7746
▁diminished	-7747
▁engineered	-7748
▁healthcare	-7749
▁nicaraguan	-7750
▁passengers	-7751
▁perception	-7752
▁psychology	-7753
▁tremendous	-7754
▁arbitragers	-7755
▁oppenheimer	-7756
▁supervision	-7757
▁agricultural	-7758
▁occasionally	-7759
▁superconduct	-7760
▁unsuccessful	-7761
▁establishment	-7762
▁investigators	-7763
▁participating	-7764
dp	-7765
my	-7766
aii	-7767
cia	-7768
dtv	-7769
enb	-7770
ibb	-7771
irl	-7772
kur	-7773
lov	-7774
lyn	-7775
nzo	-7776
zed	-7777
▁\*	-7778
▁aw	-7779
▁pc	-7780
half	-7781
iden	-7782
iser	-7783
itte	-7784
mill	-7785
nold	-7786
olic	-7787
owed	-7788
tail	-7789
waii	-7790
yant	-7791
yard	-7792
▁ble	-7793
▁hbo	-7794
▁inn	-7795
▁itt	-7796
▁ldp	-7797
▁sue	-7798
adeau	-7799
arity	-7800
aults	-7801
const	-7802
erves	-7803
istol	-7804
myers	-7805
odate	-7806
oitte	-7807
onged	-7808
parts	-7809
shiba	-7810
tonio	-7811
umber	-7812
▁100-	-7813
▁arby	-7814
▁band	-7815
▁fend	-7816
▁fing	-7817
▁girl	-7818
▁glas	-7819
▁grab	-7820
▁hdtv	-7821
▁intr	-7822
▁lore	-7823
▁nato	-7824
▁negl	-7825
▁quit	-7826
▁tank	-7827
▁tele	-7828
▁wins	-7829
▁yale	-7830
author	-7831
enbaum	-7832
graded	-7833
ilding	-7834
millan	-7835
orders	-7836
peters	-7837
▁alter	-7838
▁avery	-7839
▁bears	-7840
▁buick	-7841
▁burst	-7842
▁colon	-7843
▁debut	-7844
▁drove	-7845
▁fares	-7846
▁fault	-7847
▁fines	-7848
▁flows	-7849
▁grows	-7850
▁haven	-7851
▁lexus	-7852
▁libor	-7853
▁parks	-7854
▁revco	-7855
▁rises	-7856
▁rosen	-7857
▁schol	-7858
▁shake	-7859
▁solve	-7860
▁spots	-7861
▁stems	-7862
▁tanks	-7863
▁topic	-7864
▁truly	-7865
▁vowed	-7866
▁wider	-7867
develop	-7868
mediate	-7869
vention	-7870
▁abrupt	-7871
▁accomm	-7872
▁alfred	-7873
▁animal	-7874
▁arnold	-7875
▁bother	-7876
▁contra	-7877
▁deeply	-7878
▁desert	-7879
▁garcia	-7880
▁harold	-7881
▁hawaii	-7882
▁latter	-7883
▁leases	-7884
▁liquor	-7885
▁maiden	-7886
▁marvin	-7887
▁merkur	-7888
▁parall	-7889
▁pestic	-7890
▁reader	-7891
▁realty	-7892
▁repeal	-7893
▁repeat	-7894
▁shield	-7895
▁singer	-7896
▁sister	-7897
▁squibb	-7898
▁submit	-7899
▁suitor	-7900
▁tables	-7901
▁tested	-7902
▁victor	-7903
▁antonio	-7904
▁anxiety	-7905
▁anymore	-7906
▁backlog	-7907
▁bristol	-7908
▁careful	-7909
▁choices	-7910
▁coleman	-7911
▁columns	-7912
▁counted	-7913
▁curtail	-7914
▁drought	-7915
▁earning	-7916
▁exposed	-7917
▁fastest	-7918
▁fireman	-7919
▁granted	-7920
▁heading	-7921
▁heating	-7922
▁jewelry	-7923
▁knocked	-7924
▁lorenzo	-7925
▁married	-7926
▁parking	-7927
▁patents	-7928
▁posting	-7929
▁quietly	-7930
▁regions	-7931
▁registr	-7932
▁resumed	-7933
▁sanford	-7934
▁seagram	-7935
▁seattle	-7936
▁seconds	-7937
▁signing	-7938
▁silicon	-7939
▁slashed	-7940
▁tickets	-7941
▁toshiba	-7942
▁unclear	-7943
▁unconst	-7944
▁wearing	-7945
▁welcome	-7946
developed	-7947
itutional	-7948
▁	-7949
e	-7950
t	-7951
a	-7952
o	-7953
i	-7954
n	-7955
s	-7956
r	-7957
h	-7958
l	-7959
d	-7960
c	-7961
u	-7962
m	-7963
f	-7964
p	-7965
g	-7966
y	-7967
b	-7968
w	-7969
v	-7970
N	-7971
k	-7972
.	-7973
'	-7974
x	-7975
j	-7976
$	-7977
-	-7978
q	-7979
z	-7980
&	-7981
0	-7982
1	-7983
9	-7984
3	-7985
#	-7986
2	-7987
8	-7988
5	-7989
\	-7990
7	-7991
6	-7992
/	-7993
4	-7994
*	-7995
